{
  "version": "1.0",
  "truncation": null,
  "padding": null,
  "added_tokens": [
    {
      "id": 0,
      "content": "[PAD]",
      "single_word": false,
      "lstrip": false,
      "rstrip": false,
      "normalized": false,
      "special": true
    },
    {
      "id": 1,
      "content": "[UNK]",
      "single_word": false,
      "lstrip": false,
      "rstrip": false,
      "normalized": false,
      "special": true
    },
    {
      "id": 2,
      "content": "[SOS]",
      "single_word": false,
      "lstrip": false,
      "rstrip": false,
      "normalized": false,
      "special": true
    },
    {
      "id": 3,
      "content": "[EOS]",
      "single_word": false,
      "lstrip": false,
      "rstrip": false,
      "normalized": false,
      "special": true
    }
  ],
  "normalizer": null,
  "pre_tokenizer": {
    "type": "Whitespace"
  },
  "post_processor": null,
  "decoder": null,
  "model": {
    "type": "WordPiece",
    "unk_token": "[UNK]",
    "continuing_subword_prefix": "##",
    "max_input_chars_per_word": 100,
    "vocab": {
      "[PAD]": 0,
      "[UNK]": 1,
      "[SOS]": 2,
      "[EOS]": 3,
      "!": 4,
      "'": 5,
      ",": 6,
      ".": 7,
      "?": 8,
      "a": 9,
      "b": 10,
      "c": 11,
      "d": 12,
      "e": 13,
      "f": 14,
      "g": 15,
      "h": 16,
      "i": 17,
      "j": 18,
      "k": 19,
      "l": 20,
      "m": 21,
      "n": 22,
      "o": 23,
      "p": 24,
      "q": 25,
      "r": 26,
      "s": 27,
      "t": 28,
      "u": 29,
      "v": 30,
      "w": 31,
      "x": 32,
      "y": 33,
      "z": 34,
      "ㄱ": 35,
      "ㄲ": 36,
      "ㄳ": 37,
      "ㄴ": 38,
      "ㄵ": 39,
      "ㄶ": 40,
      "ㄷ": 41,
      "ㄸ": 42,
      "ㄹ": 43,
      "ㄺ": 44,
      "ㄻ": 45,
      "ㅀ": 46,
      "ㅁ": 47,
      "ㅂ": 48,
      "ㅃ": 49,
      "ㅄ": 50,
      "ㅅ": 51,
      "ㅆ": 52,
      "ㅇ": 53,
      "ㅈ": 54,
      "ㅉ": 55,
      "ㅊ": 56,
      "ㅋ": 57,
      "ㅌ": 58,
      "ㅍ": 59,
      "ㅎ": 60,
      "ㅏ": 61,
      "ㅐ": 62,
      "ㅑ": 63,
      "ㅒ": 64,
      "ㅓ": 65,
      "ㅔ": 66,
      "ㅕ": 67,
      "ㅖ": 68,
      "ㅗ": 69,
      "ㅘ": 70,
      "ㅛ": 71,
      "ㅜ": 72,
      "ㅝ": 73,
      "ㅞ": 74,
      "ㅟ": 75,
      "ㅠ": 76,
      "ㅡ": 77,
      "ㅢ": 78,
      "ㅣ": 79,
      "가": 80,
      "각": 81,
      "간": 82,
      "갅": 83,
      "갇": 84,
      "갈": 85,
      "갉": 86,
      "감": 87,
      "갑": 88,
      "값": 89,
      "갓": 90,
      "갔": 91,
      "강": 92,
      "갖": 93,
      "갗": 94,
      "갘": 95,
      "같": 96,
      "갚": 97,
      "갛": 98,
      "개": 99,
      "객": 100,
      "갠": 101,
      "갤": 102,
      "갬": 103,
      "갭": 104,
      "갯": 105,
      "갰": 106,
      "갱": 107,
      "갵": 108,
      "갸": 109,
      "걀": 110,
      "걈": 111,
      "걍": 112,
      "걑": 113,
      "걔": 114,
      "걘": 115,
      "거": 116,
      "걱": 117,
      "건": 118,
      "걷": 119,
      "걸": 120,
      "검": 121,
      "겁": 122,
      "겂": 123,
      "것": 124,
      "겄": 125,
      "겅": 126,
      "겈": 127,
      "겉": 128,
      "겋": 129,
      "게": 130,
      "겐": 131,
      "겓": 132,
      "겔": 133,
      "겜": 134,
      "겝": 135,
      "겟": 136,
      "겠": 137,
      "겡": 138,
      "겤": 139,
      "겧": 140,
      "겨": 141,
      "격": 142,
      "겪": 143,
      "견": 144,
      "결": 145,
      "겸": 146,
      "겹": 147,
      "겻": 148,
      "겼": 149,
      "경": 150,
      "곀": 151,
      "곁": 152,
      "곃": 153,
      "계": 154,
      "곅": 155,
      "곗": 156,
      "곘": 157,
      "고": 158,
      "곡": 159,
      "곤": 160,
      "곧": 161,
      "골": 162,
      "곪": 163,
      "곰": 164,
      "곱": 165,
      "곳": 166,
      "공": 167,
      "곶": 168,
      "곷": 169,
      "곸": 170,
      "곻": 171,
      "과": 172,
      "곽": 173,
      "관": 174,
      "괄": 175,
      "광": 176,
      "괘": 177,
      "괜": 178,
      "괞": 179,
      "괭": 180,
      "괴": 181,
      "괸": 182,
      "굉": 183,
      "교": 184,
      "구": 185,
      "국": 186,
      "굯": 187,
      "군": 188,
      "굳": 189,
      "굴": 190,
      "굵": 191,
      "굶": 192,
      "굷": 193,
      "굼": 194,
      "굽": 195,
      "굿": 196,
      "궁": 197,
      "궂": 198,
      "궅": 199,
      "궈": 200,
      "권": 201,
      "궐": 202,
      "궛": 203,
      "궜": 204,
      "궤": 205,
      "귀": 206,
      "귄": 207,
      "귈": 208,
      "귐": 209,
      "귓": 210,
      "귘": 211,
      "규": 212,
      "귝": 213,
      "균": 214,
      "귤": 215,
      "귬": 216,
      "귯": 217,
      "귱": 218,
      "그": 219,
      "극": 220,
      "귻": 221,
      "근": 222,
      "귿": 223,
      "글": 224,
      "긁": 225,
      "금": 226,
      "급": 227,
      "긋": 228,
      "긍": 229,
      "긑": 230,
      "긔": 231,
      "긛": 232,
      "긬": 233,
      "기": 234,
      "긱": 235,
      "긴": 236,
      "길": 237,
      "김": 238,
      "깁": 239,
      "깃": 240,
      "깄": 241,
      "깅": 242,
      "깇": 243,
      "깈": 244,
      "깉": 245,
      "깊": 246,
      "까": 247,
      "깍": 248,
      "깎": 249,
      "깐": 250,
      "깔": 251,
      "깜": 252,
      "깝": 253,
      "깞": 254,
      "깟": 255,
      "깠": 256,
      "깡": 257,
      "깤": 258,
      "깥": 259,
      "깨": 260,
      "깩": 261,
      "깬": 262,
      "깰": 263,
      "깸": 264,
      "깹": 265,
      "깻": 266,
      "깼": 267,
      "깽": 268,
      "꺄": 269,
      "꺅": 270,
      "꺆": 271,
      "꺇": 272,
      "꺍": 273,
      "꺙": 274,
      "꺜": 275,
      "꺠": 276,
      "꺤": 277,
      "꺼": 278,
      "꺽": 279,
      "꺾": 280,
      "껀": 281,
      "껃": 282,
      "껄": 283,
      "껌": 284,
      "껍": 285,
      "껏": 286,
      "껐": 287,
      "껑": 288,
      "껒": 289,
      "께": 290,
      "껜": 291,
      "껬": 292,
      "껭": 293,
      "껰": 294,
      "껴": 295,
      "꼅": 296,
      "꼇": 297,
      "꼈": 298,
      "꼐": 299,
      "꼬": 300,
      "꼭": 301,
      "꼮": 302,
      "꼰": 303,
      "꼳": 304,
      "꼴": 305,
      "꼼": 306,
      "꼽": 307,
      "꼿": 308,
      "꽁": 309,
      "꽂": 310,
      "꽃": 311,
      "꽄": 312,
      "꽈": 313,
      "꽉": 314,
      "꽝": 315,
      "꽤": 316,
      "꽥": 317,
      "꽦": 318,
      "꽹": 319,
      "꾀": 320,
      "꾜": 321,
      "꾱": 322,
      "꾸": 323,
      "꾹": 324,
      "꾼": 325,
      "꾿": 326,
      "꿀": 327,
      "꿇": 328,
      "꿈": 329,
      "꿉": 330,
      "꿋": 331,
      "꿍": 332,
      "꿎": 333,
      "꿐": 334,
      "꿑": 335,
      "꿓": 336,
      "꿔": 337,
      "꿘": 338,
      "꿧": 339,
      "꿨": 340,
      "꿩": 341,
      "꿬": 342,
      "꿰": 343,
      "뀌": 344,
      "뀐": 345,
      "뀔": 346,
      "뀜": 347,
      "뀨": 348,
      "뀩": 349,
      "뀰": 350,
      "뀼": 351,
      "끄": 352,
      "끅": 353,
      "끆": 354,
      "끈": 355,
      "끊": 356,
      "끋": 357,
      "끌": 358,
      "끓": 359,
      "끔": 360,
      "끕": 361,
      "끗": 362,
      "끙": 363,
      "끚": 364,
      "끝": 365,
      "끠": 366,
      "끼": 367,
      "끽": 368,
      "끾": 369,
      "낀": 370,
      "낄": 371,
      "낌": 372,
      "낍": 373,
      "낏": 374,
      "낑": 375,
      "낔": 376,
      "나": 377,
      "낙": 378,
      "낚": 379,
      "낛": 380,
      "난": 381,
      "낞": 382,
      "낟": 383,
      "날": 384,
      "낡": 385,
      "남": 386,
      "납": 387,
      "낫": 388,
      "났": 389,
      "낭": 390,
      "낮": 391,
      "낯": 392,
      "낰": 393,
      "낱": 394,
      "낲": 395,
      "낳": 396,
      "내": 397,
      "낸": 398,
      "낼": 399,
      "냄": 400,
      "냅": 401,
      "냇": 402,
      "냈": 403,
      "냉": 404,
      "냊": 405,
      "냌": 406,
      "냐": 407,
      "냑": 408,
      "냔": 409,
      "냠": 410,
      "냣": 411,
      "냥": 412,
      "냨": 413,
      "냬": 414,
      "넀": 415,
      "너": 416,
      "넉": 417,
      "넋": 418,
      "넌": 419,
      "널": 420,
      "넒": 421,
      "넓": 422,
      "넖": 423,
      "넗": 424,
      "넘": 425,
      "넙": 426,
      "넛": 427,
      "넜": 428,
      "넝": 429,
      "넢": 430,
      "넣": 431,
      "네": 432,
      "넥": 433,
      "넨": 434,
      "넫": 435,
      "넬": 436,
      "넴": 437,
      "넵": 438,
      "넷": 439,
      "넸": 440,
      "넹": 441,
      "넼": 442,
      "넿": 443,
      "녀": 444,
      "녁": 445,
      "년": 446,
      "녈": 447,
      "념": 448,
      "녓": 449,
      "녔": 450,
      "녕": 451,
      "녘": 452,
      "녜": 453,
      "노": 454,
      "녹": 455,
      "논": 456,
      "녿": 457,
      "놀": 458,
      "놃": 459,
      "놈": 460,
      "놉": 461,
      "놋": 462,
      "농": 463,
      "놑": 464,
      "높": 465,
      "놓": 466,
      "놔": 467,
      "놕": 468,
      "놘": 469,
      "놜": 470,
      "놧": 471,
      "놨": 472,
      "놬": 473,
      "뇌": 474,
      "뇔": 475,
      "뇨": 476,
      "뇬": 477,
      "뇰": 478,
      "뇽": 479,
      "누": 480,
      "눅": 481,
      "눈": 482,
      "눊": 483,
      "눌": 484,
      "눔": 485,
      "눕": 486,
      "눙": 487,
      "눠": 488,
      "눼": 489,
      "뉘": 490,
      "뉜": 491,
      "뉠": 492,
      "뉨": 493,
      "뉴": 494,
      "늄": 495,
      "늉": 496,
      "느": 497,
      "늑": 498,
      "는": 499,
      "늘": 500,
      "늙": 501,
      "늠": 502,
      "늡": 503,
      "늣": 504,
      "능": 505,
      "늦": 506,
      "늨": 507,
      "늪": 508,
      "늬": 509,
      "늰": 510,
      "늴": 511,
      "닁": 512,
      "니": 513,
      "닉": 514,
      "닊": 515,
      "닌": 516,
      "닏": 517,
      "닐": 518,
      "님": 519,
      "닙": 520,
      "닛": 521,
      "닝": 522,
      "닟": 523,
      "닠": 524,
      "다": 525,
      "닥": 526,
      "닦": 527,
      "단": 528,
      "닫": 529,
      "달": 530,
      "닭": 531,
      "닮": 532,
      "닯": 533,
      "닳": 534,
      "담": 535,
      "답": 536,
      "닶": 537,
      "닷": 538,
      "당": 539,
      "닺": 540,
      "닻": 541,
      "닼": 542,
      "닿": 543,
      "대": 544,
      "댁": 545,
      "댄": 546,
      "댇": 547,
      "댈": 548,
      "댐": 549,
      "댑": 550,
      "댓": 551,
      "댔": 552,
      "댕": 553,
      "댖": 554,
      "댘": 555,
      "댜": 556,
      "댠": 557,
      "댣": 558,
      "댬": 559,
      "댰": 560,
      "댸": 561,
      "더": 562,
      "덕": 563,
      "던": 564,
      "덛": 565,
      "덜": 566,
      "덟": 567,
      "덤": 568,
      "덥": 569,
      "덧": 570,
      "덨": 571,
      "덩": 572,
      "덫": 573,
      "덮": 574,
      "덯": 575,
      "데": 576,
      "덱": 577,
      "덴": 578,
      "덷": 579,
      "델": 580,
      "뎀": 581,
      "뎁": 582,
      "뎃": 583,
      "뎄": 584,
      "뎅": 585,
      "뎈": 586,
      "뎋": 587,
      "뎌": 588,
      "뎍": 589,
      "뎐": 590,
      "뎜": 591,
      "뎟": 592,
      "뎠": 593,
      "뎡": 594,
      "도": 595,
      "독": 596,
      "돈": 597,
      "돋": 598,
      "돌": 599,
      "돔": 600,
      "돕": 601,
      "돗": 602,
      "동": 603,
      "돜": 604,
      "돟": 605,
      "돠": 606,
      "돤": 607,
      "돱": 608,
      "돼": 609,
      "됀": 610,
      "됄": 611,
      "됌": 612,
      "됏": 613,
      "됐": 614,
      "됑": 615,
      "되": 616,
      "된": 617,
      "될": 618,
      "됨": 619,
      "됩": 620,
      "됫": 621,
      "됬": 622,
      "됭": 623,
      "됴": 624,
      "됻": 625,
      "두": 626,
      "둑": 627,
      "둔": 628,
      "둘": 629,
      "둠": 630,
      "둡": 631,
      "둣": 632,
      "둥": 633,
      "둬": 634,
      "둿": 635,
      "뒀": 636,
      "뒈": 637,
      "뒌": 638,
      "뒤": 639,
      "뒷": 640,
      "뒹": 641,
      "듀": 642,
      "듁": 643,
      "듕": 644,
      "드": 645,
      "득": 646,
      "든": 647,
      "듣": 648,
      "들": 649,
      "듦": 650,
      "듧": 651,
      "듨": 652,
      "듬": 653,
      "듭": 654,
      "듯": 655,
      "등": 656,
      "듴": 657,
      "듵": 658,
      "듷": 659,
      "듸": 660,
      "딍": 661,
      "디": 662,
      "딕": 663,
      "딘": 664,
      "딛": 665,
      "딜": 666,
      "딤": 667,
      "딥": 668,
      "딧": 669,
      "딨": 670,
      "딩": 671,
      "딪": 672,
      "딫": 673,
      "딬": 674,
      "딮": 675,
      "따": 676,
      "딱": 677,
      "딲": 678,
      "딴": 679,
      "딸": 680,
      "땀": 681,
      "땁": 682,
      "땃": 683,
      "땄": 684,
      "땅": 685,
      "땈": 686,
      "땋": 687,
      "때": 688,
      "땍": 689,
      "땐": 690,
      "땓": 691,
      "땔": 692,
      "땜": 693,
      "땝": 694,
      "땟": 695,
      "땠": 696,
      "땡": 697,
      "땨": 698,
      "땸": 699,
      "떄": 700,
      "떈": 701,
      "떌": 702,
      "떔": 703,
      "떘": 704,
      "떙": 705,
      "떠": 706,
      "떡": 707,
      "떤": 708,
      "떨": 709,
      "떫": 710,
      "떰": 711,
      "떱": 712,
      "떳": 713,
      "떴": 714,
      "떵": 715,
      "떻": 716,
      "떼": 717,
      "떽": 718,
      "뗀": 719,
      "뗄": 720,
      "뗬": 721,
      "뗴": 722,
      "뗼": 723,
      "또": 724,
      "똑": 725,
      "똔": 726,
      "똗": 727,
      "똘": 728,
      "똠": 729,
      "똥": 730,
      "똭": 731,
      "똴": 732,
      "뙀": 733,
      "뙁": 734,
      "뙇": 735,
      "뚜": 736,
      "뚝": 737,
      "뚠": 738,
      "뚤": 739,
      "뚫": 740,
      "뚬": 741,
      "뚯": 742,
      "뚱": 743,
      "뛰": 744,
      "뛴": 745,
      "뛸": 746,
      "뜀": 747,
      "뜁": 748,
      "뜌": 749,
      "뜨": 750,
      "뜩": 751,
      "뜬": 752,
      "뜯": 753,
      "뜰": 754,
      "뜷": 755,
      "뜸": 756,
      "뜻": 757,
      "뜽": 758,
      "띀": 759,
      "띁": 760,
      "띄": 761,
      "띈": 762,
      "띌": 763,
      "띔": 764,
      "띠": 765,
      "띡": 766,
      "띤": 767,
      "띨": 768,
      "띰": 769,
      "띱": 770,
      "띵": 771,
      "라": 772,
      "락": 773,
      "란": 774,
      "랃": 775,
      "랄": 776,
      "람": 777,
      "랍": 778,
      "랏": 779,
      "랐": 780,
      "랑": 781,
      "랒": 782,
      "랔": 783,
      "랖": 784,
      "랗": 785,
      "래": 786,
      "랙": 787,
      "랜": 788,
      "랟": 789,
      "랠": 790,
      "램": 791,
      "랩": 792,
      "랫": 793,
      "랬": 794,
      "랭": 795,
      "랰": 796,
      "랴": 797,
      "략": 798,
      "랽": 799,
      "럈": 800,
      "량": 801,
      "럔": 802,
      "럤": 803,
      "러": 804,
      "럭": 805,
      "런": 806,
      "럴": 807,
      "럼": 808,
      "럽": 809,
      "럾": 810,
      "럿": 811,
      "렀": 812,
      "렁": 813,
      "렇": 814,
      "레": 815,
      "렉": 816,
      "렌": 817,
      "렐": 818,
      "렘": 819,
      "렙": 820,
      "렛": 821,
      "렜": 822,
      "렝": 823,
      "렠": 824,
      "려": 825,
      "력": 826,
      "련": 827,
      "렬": 828,
      "렴": 829,
      "렵": 830,
      "렷": 831,
      "렸": 832,
      "령": 833,
      "렿": 834,
      "례": 835,
      "롁": 836,
      "롄": 837,
      "로": 838,
      "록": 839,
      "론": 840,
      "롤": 841,
      "롬": 842,
      "롭": 843,
      "롯": 844,
      "롱": 845,
      "롴": 846,
      "롷": 847,
      "롸": 848,
      "롹": 849,
      "뢀": 850,
      "뢈": 851,
      "뢉": 852,
      "뢍": 853,
      "뢔": 854,
      "뢰": 855,
      "료": 856,
      "룔": 857,
      "룕": 858,
      "룡": 859,
      "루": 860,
      "룩": 861,
      "룬": 862,
      "룯": 863,
      "룰": 864,
      "룸": 865,
      "룹": 866,
      "룻": 867,
      "룽": 868,
      "뤄": 869,
      "뤌": 870,
      "뤘": 871,
      "뤠": 872,
      "뤡": 873,
      "뤰": 874,
      "뤼": 875,
      "뤽": 876,
      "륄": 877,
      "륒": 878,
      "류": 879,
      "륙": 880,
      "륜": 881,
      "률": 882,
      "륨": 883,
      "륭": 884,
      "르": 885,
      "륵": 886,
      "른": 887,
      "륺": 888,
      "를": 889,
      "름": 890,
      "릅": 891,
      "릇": 892,
      "릉": 893,
      "릋": 894,
      "릌": 895,
      "릎": 896,
      "릏": 897,
      "릐": 898,
      "릣": 899,
      "리": 900,
      "릭": 901,
      "린": 902,
      "릳": 903,
      "릴": 904,
      "림": 905,
      "립": 906,
      "릿": 907,
      "링": 908,
      "맂": 909,
      "맄": 910,
      "마": 911,
      "막": 912,
      "만": 913,
      "맍": 914,
      "많": 915,
      "맏": 916,
      "말": 917,
      "맑": 918,
      "맗": 919,
      "맘": 920,
      "맙": 921,
      "맛": 922,
      "맜": 923,
      "망": 924,
      "맞": 925,
      "맟": 926,
      "맠": 927,
      "맡": 928,
      "맣": 929,
      "매": 930,
      "맥": 931,
      "맨": 932,
      "맬": 933,
      "맴": 934,
      "맵": 935,
      "맷": 936,
      "맸": 937,
      "맹": 938,
      "맺": 939,
      "맻": 940,
      "먀": 941,
      "먄": 942,
      "먠": 943,
      "머": 944,
      "먹": 945,
      "먼": 946,
      "먾": 947,
      "멀": 948,
      "멈": 949,
      "멉": 950,
      "멋": 951,
      "멌": 952,
      "멍": 953,
      "멎": 954,
      "멐": 955,
      "멓": 956,
      "메": 957,
      "멕": 958,
      "멘": 959,
      "멜": 960,
      "멤": 961,
      "멧": 962,
      "멩": 963,
      "며": 964,
      "멱": 965,
      "면": 966,
      "멸": 967,
      "몀": 968,
      "몃": 969,
      "몄": 970,
      "명": 971,
      "몆": 972,
      "몇": 973,
      "모": 974,
      "목": 975,
      "몫": 976,
      "몬": 977,
      "몰": 978,
      "몸": 979,
      "몹": 980,
      "못": 981,
      "몽": 982,
      "뫁": 983,
      "뫄": 984,
      "뫘": 985,
      "뫼": 986,
      "묘": 987,
      "묠": 988,
      "묨": 989,
      "묭": 990,
      "무": 991,
      "묵": 992,
      "묶": 993,
      "문": 994,
      "묻": 995,
      "물": 996,
      "묽": 997,
      "뭄": 998,
      "뭇": 999,
      "뭉": 1000,
      "뭍": 1001,
      "뭐": 1002,
      "뭔": 1003,
      "뭘": 1004,
      "뭡": 1005,
      "뭣": 1006,
      "뭥": 1007,
      "뭨": 1008,
      "뭬": 1009,
      "뮁": 1010,
      "뮈": 1011,
      "뮌": 1012,
      "뮐": 1013,
      "뮝": 1014,
      "뮤": 1015,
      "뮨": 1016,
      "뮬": 1017,
      "므": 1018,
      "믄": 1019,
      "믈": 1020,
      "믐": 1021,
      "믓": 1022,
      "믕": 1023,
      "믜": 1024,
      "미": 1025,
      "믹": 1026,
      "믺": 1027,
      "민": 1028,
      "믿": 1029,
      "밀": 1030,
      "밈": 1031,
      "밉": 1032,
      "밋": 1033,
      "밌": 1034,
      "밍": 1035,
      "밎": 1036,
      "및": 1037,
      "밐": 1038,
      "밑": 1039,
      "밓": 1040,
      "바": 1041,
      "박": 1042,
      "밖": 1043,
      "반": 1044,
      "받": 1045,
      "발": 1046,
      "밝": 1047,
      "밟": 1048,
      "밣": 1049,
      "밤": 1050,
      "밥": 1051,
      "밧": 1052,
      "밨": 1053,
      "방": 1054,
      "밫": 1055,
      "밬": 1056,
      "밭": 1057,
      "배": 1058,
      "백": 1059,
      "밴": 1060,
      "밷": 1061,
      "밸": 1062,
      "뱀": 1063,
      "뱁": 1064,
      "뱃": 1065,
      "뱅": 1066,
      "뱆": 1067,
      "뱉": 1068,
      "뱌": 1069,
      "뱍": 1070,
      "뱎": 1071,
      "뱔": 1072,
      "버": 1073,
      "벅": 1074,
      "번": 1075,
      "벋": 1076,
      "벌": 1077,
      "범": 1078,
      "법": 1079,
      "벗": 1080,
      "벙": 1081,
      "벚": 1082,
      "베": 1083,
      "벡": 1084,
      "벤": 1085,
      "벨": 1086,
      "벰": 1087,
      "벳": 1088,
      "벴": 1089,
      "벵": 1090,
      "벸": 1091,
      "벼": 1092,
      "벽": 1093,
      "변": 1094,
      "별": 1095,
      "볌": 1096,
      "볍": 1097,
      "볐": 1098,
      "병": 1099,
      "볓": 1100,
      "볔": 1101,
      "볕": 1102,
      "볠": 1103,
      "보": 1104,
      "복": 1105,
      "볶": 1106,
      "본": 1107,
      "볹": 1108,
      "볻": 1109,
      "볼": 1110,
      "봄": 1111,
      "봅": 1112,
      "봇": 1113,
      "봈": 1114,
      "봉": 1115,
      "봊": 1116,
      "봐": 1117,
      "봑": 1118,
      "봘": 1119,
      "봙": 1120,
      "봣": 1121,
      "봤": 1122,
      "봨": 1123,
      "봫": 1124,
      "봬": 1125,
      "봭": 1126,
      "봴": 1127,
      "봵": 1128,
      "뵈": 1129,
      "뵌": 1130,
      "뵐": 1131,
      "뵙": 1132,
      "뵛": 1133,
      "뵜": 1134,
      "뵤": 1135,
      "뵨": 1136,
      "뵹": 1137,
      "부": 1138,
      "북": 1139,
      "분": 1140,
      "붅": 1141,
      "붆": 1142,
      "붇": 1143,
      "불": 1144,
      "붉": 1145,
      "붐": 1146,
      "붑": 1147,
      "붓": 1148,
      "붕": 1149,
      "붙": 1150,
      "붜": 1151,
      "붤": 1152,
      "붸": 1153,
      "붹": 1154,
      "뷁": 1155,
      "뷃": 1156,
      "뷐": 1157,
      "뷔": 1158,
      "뷰": 1159,
      "뷴": 1160,
      "뷸": 1161,
      "븅": 1162,
      "브": 1163,
      "븍": 1164,
      "븐": 1165,
      "블": 1166,
      "븜": 1167,
      "븟": 1168,
      "븡": 1169,
      "븨": 1170,
      "븬": 1171,
      "빂": 1172,
      "비": 1173,
      "빅": 1174,
      "빈": 1175,
      "빋": 1176,
      "빌": 1177,
      "빔": 1178,
      "빕": 1179,
      "빗": 1180,
      "빙": 1181,
      "빚": 1182,
      "빛": 1183,
      "빝": 1184,
      "빠": 1185,
      "빡": 1186,
      "빢": 1187,
      "빤": 1188,
      "빨": 1189,
      "빰": 1190,
      "빳": 1191,
      "빴": 1192,
      "빵": 1193,
      "빼": 1194,
      "빽": 1195,
      "뺀": 1196,
      "뺄": 1197,
      "뺌": 1198,
      "뺍": 1199,
      "뺏": 1200,
      "뺐": 1201,
      "뺑": 1202,
      "뺒": 1203,
      "뺘": 1204,
      "뺠": 1205,
      "뺨": 1206,
      "뺴": 1207,
      "뺵": 1208,
      "뻉": 1209,
      "뻐": 1210,
      "뻑": 1211,
      "뻔": 1212,
      "뻗": 1213,
      "뻘": 1214,
      "뻡": 1215,
      "뻣": 1216,
      "뻤": 1217,
      "뻥": 1218,
      "뻬": 1219,
      "뻭": 1220,
      "뻴": 1221,
      "뼈": 1222,
      "뼉": 1223,
      "뼘": 1224,
      "뼛": 1225,
      "뼜": 1226,
      "뽀": 1227,
      "뽁": 1228,
      "뽄": 1229,
      "뽈": 1230,
      "뽐": 1231,
      "뽑": 1232,
      "뽕": 1233,
      "뽜": 1234,
      "뽠": 1235,
      "뽯": 1236,
      "뽱": 1237,
      "뾰": 1238,
      "뿅": 1239,
      "뿌": 1240,
      "뿍": 1241,
      "뿐": 1242,
      "뿔": 1243,
      "뿜": 1244,
      "뿡": 1245,
      "뿨": 1246,
      "뿩": 1247,
      "뿰": 1248,
      "쀍": 1249,
      "쀠": 1250,
      "쀨": 1251,
      "쀼": 1252,
      "쁘": 1253,
      "쁜": 1254,
      "쁠": 1255,
      "쁨": 1256,
      "쁩": 1257,
      "삐": 1258,
      "삑": 1259,
      "삔": 1260,
      "삘": 1261,
      "삤": 1262,
      "삥": 1263,
      "사": 1264,
      "삭": 1265,
      "산": 1266,
      "삳": 1267,
      "살": 1268,
      "삵": 1269,
      "삶": 1270,
      "삻": 1271,
      "삼": 1272,
      "삽": 1273,
      "삿": 1274,
      "샀": 1275,
      "상": 1276,
      "샅": 1277,
      "새": 1278,
      "색": 1279,
      "샊": 1280,
      "샌": 1281,
      "샐": 1282,
      "샘": 1283,
      "샙": 1284,
      "샛": 1285,
      "샜": 1286,
      "생": 1287,
      "샠": 1288,
      "샡": 1289,
      "샣": 1290,
      "샤": 1291,
      "샥": 1292,
      "샨": 1293,
      "샬": 1294,
      "샴": 1295,
      "샵": 1296,
      "샷": 1297,
      "샹": 1298,
      "섀": 1299,
      "서": 1300,
      "석": 1301,
      "섞": 1302,
      "선": 1303,
      "섣": 1304,
      "설": 1305,
      "섥": 1306,
      "섫": 1307,
      "섬": 1308,
      "섭": 1309,
      "섯": 1310,
      "섰": 1311,
      "성": 1312,
      "섲": 1313,
      "섳": 1314,
      "섴": 1315,
      "섵": 1316,
      "섶": 1317,
      "섷": 1318,
      "세": 1319,
      "섹": 1320,
      "섺": 1321,
      "섻": 1322,
      "센": 1323,
      "섿": 1324,
      "셀": 1325,
      "셈": 1326,
      "셉": 1327,
      "셋": 1328,
      "셌": 1329,
      "셍": 1330,
      "셐": 1331,
      "셑": 1332,
      "셔": 1333,
      "셕": 1334,
      "션": 1335,
      "셜": 1336,
      "셤": 1337,
      "셧": 1338,
      "셨": 1339,
      "셩": 1340,
      "셰": 1341,
      "셴": 1342,
      "셸": 1343,
      "솀": 1344,
      "소": 1345,
      "속": 1346,
      "솎": 1347,
      "손": 1348,
      "솓": 1349,
      "솔": 1350,
      "솜": 1351,
      "솝": 1352,
      "솟": 1353,
      "송": 1354,
      "솢": 1355,
      "솤": 1356,
      "솥": 1357,
      "솧": 1358,
      "솨": 1359,
      "솰": 1360,
      "쇄": 1361,
      "쇠": 1362,
      "쇳": 1363,
      "쇼": 1364,
      "숀": 1365,
      "숄": 1366,
      "숍": 1367,
      "숏": 1368,
      "숑": 1369,
      "수": 1370,
      "숙": 1371,
      "순": 1372,
      "숟": 1373,
      "술": 1374,
      "숨": 1375,
      "숩": 1376,
      "숫": 1377,
      "숭": 1378,
      "숯": 1379,
      "숰": 1380,
      "숱": 1381,
      "숲": 1382,
      "숴": 1383,
      "숼": 1384,
      "쉅": 1385,
      "쉈": 1386,
      "쉐": 1387,
      "쉑": 1388,
      "쉒": 1389,
      "쉔": 1390,
      "쉘": 1391,
      "쉡": 1392,
      "쉣": 1393,
      "쉥": 1394,
      "쉩": 1395,
      "쉬": 1396,
      "쉰": 1397,
      "쉴": 1398,
      "쉼": 1399,
      "쉽": 1400,
      "쉿": 1401,
      "슁": 1402,
      "슈": 1403,
      "슉": 1404,
      "슌": 1405,
      "슐": 1406,
      "슛": 1407,
      "슝": 1408,
      "슠": 1409,
      "스": 1410,
      "슥": 1411,
      "슨": 1412,
      "슬": 1413,
      "슭": 1414,
      "슲": 1415,
      "슴": 1416,
      "습": 1417,
      "슷": 1418,
      "승": 1419,
      "슺": 1420,
      "슼": 1421,
      "슽": 1422,
      "슾": 1423,
      "싀": 1424,
      "싄": 1425,
      "싐": 1426,
      "싑": 1427,
      "싖": 1428,
      "시": 1429,
      "식": 1430,
      "신": 1431,
      "싡": 1432,
      "싢": 1433,
      "싣": 1434,
      "실": 1435,
      "싫": 1436,
      "심": 1437,
      "십": 1438,
      "싯": 1439,
      "싰": 1440,
      "싱": 1441,
      "싴": 1442,
      "싶": 1443,
      "싷": 1444,
      "싸": 1445,
      "싹": 1446,
      "싼": 1447,
      "쌀": 1448,
      "쌈": 1449,
      "쌉": 1450,
      "쌌": 1451,
      "쌍": 1452,
      "쌓": 1453,
      "쌔": 1454,
      "쌕": 1455,
      "쌘": 1456,
      "쌜": 1457,
      "쌤": 1458,
      "쌩": 1459,
      "쌰": 1460,
      "썁": 1461,
      "썅": 1462,
      "썌": 1463,
      "썜": 1464,
      "썡": 1465,
      "써": 1466,
      "썩": 1467,
      "썪": 1468,
      "썬": 1469,
      "썰": 1470,
      "썱": 1471,
      "썸": 1472,
      "썹": 1473,
      "썻": 1474,
      "썼": 1475,
      "썽": 1476,
      "쎀": 1477,
      "쎄": 1478,
      "쎅": 1479,
      "쎈": 1480,
      "쎌": 1481,
      "쎔": 1482,
      "쎗": 1483,
      "쎘": 1484,
      "쎠": 1485,
      "쎤": 1486,
      "쎴": 1487,
      "쎼": 1488,
      "쎾": 1489,
      "쏔": 1490,
      "쏘": 1491,
      "쏙": 1492,
      "쏜": 1493,
      "쏟": 1494,
      "쏠": 1495,
      "쏨": 1496,
      "쏩": 1497,
      "쏫": 1498,
      "쏭": 1499,
      "쏱": 1500,
      "쏴": 1501,
      "쐈": 1502,
      "쐌": 1503,
      "쐬": 1504,
      "쑈": 1505,
      "쑝": 1506,
      "쑤": 1507,
      "쑥": 1508,
      "쑨": 1509,
      "쑬": 1510,
      "쑴": 1511,
      "쑹": 1512,
      "쒀": 1513,
      "쒕": 1514,
      "쒜": 1515,
      "쒯": 1516,
      "쒰": 1517,
      "쒸": 1518,
      "쓉": 1519,
      "쓔": 1520,
      "쓕": 1521,
      "쓰": 1522,
      "쓱": 1523,
      "쓴": 1524,
      "쓸": 1525,
      "씀": 1526,
      "씁": 1527,
      "씌": 1528,
      "씐": 1529,
      "씝": 1530,
      "씨": 1531,
      "씩": 1532,
      "씪": 1533,
      "씬": 1534,
      "씰": 1535,
      "씸": 1536,
      "씹": 1537,
      "씻": 1538,
      "씼": 1539,
      "씽": 1540,
      "앀": 1541,
      "아": 1542,
      "악": 1543,
      "안": 1544,
      "앉": 1545,
      "않": 1546,
      "앋": 1547,
      "알": 1548,
      "앍": 1549,
      "앎": 1550,
      "앓": 1551,
      "암": 1552,
      "압": 1553,
      "앖": 1554,
      "앗": 1555,
      "았": 1556,
      "앙": 1557,
      "앚": 1558,
      "앜": 1559,
      "앞": 1560,
      "앟": 1561,
      "애": 1562,
      "액": 1563,
      "앤": 1564,
      "앨": 1565,
      "앰": 1566,
      "앱": 1567,
      "앳": 1568,
      "앴": 1569,
      "앵": 1570,
      "앸": 1571,
      "야": 1572,
      "약": 1573,
      "얀": 1574,
      "얄": 1575,
      "얇": 1576,
      "얌": 1577,
      "얍": 1578,
      "얏": 1579,
      "얐": 1580,
      "양": 1581,
      "얔": 1582,
      "얕": 1583,
      "얗": 1584,
      "얘": 1585,
      "얙": 1586,
      "얜": 1587,
      "어": 1588,
      "억": 1589,
      "언": 1590,
      "얹": 1591,
      "얺": 1592,
      "얻": 1593,
      "얼": 1594,
      "얽": 1595,
      "엄": 1596,
      "업": 1597,
      "없": 1598,
      "엇": 1599,
      "었": 1600,
      "엉": 1601,
      "엊": 1602,
      "엌": 1603,
      "엎": 1604,
      "엏": 1605,
      "에": 1606,
      "엑": 1607,
      "엓": 1608,
      "엔": 1609,
      "엘": 1610,
      "엠": 1611,
      "엡": 1612,
      "엣": 1613,
      "엥": 1614,
      "엨": 1615,
      "엪": 1616,
      "여": 1617,
      "역": 1618,
      "엮": 1619,
      "연": 1620,
      "엲": 1621,
      "열": 1622,
      "엷": 1623,
      "염": 1624,
      "엽": 1625,
      "엾": 1626,
      "엿": 1627,
      "였": 1628,
      "영": 1629,
      "옂": 1630,
      "옄": 1631,
      "옅": 1632,
      "옆": 1633,
      "옇": 1634,
      "예": 1635,
      "옌": 1636,
      "옐": 1637,
      "옘": 1638,
      "옛": 1639,
      "옜": 1640,
      "오": 1641,
      "옥": 1642,
      "온": 1643,
      "올": 1644,
      "옭": 1645,
      "옮": 1646,
      "옯": 1647,
      "옰": 1648,
      "옳": 1649,
      "옴": 1650,
      "옵": 1651,
      "옶": 1652,
      "옷": 1653,
      "옹": 1654,
      "옼": 1655,
      "옾": 1656,
      "옿": 1657,
      "와": 1658,
      "왁": 1659,
      "왃": 1660,
      "완": 1661,
      "왅": 1662,
      "왈": 1663,
      "왑": 1664,
      "왓": 1665,
      "왔": 1666,
      "왕": 1667,
      "왘": 1668,
      "왜": 1669,
      "왝": 1670,
      "왠": 1671,
      "왤": 1672,
      "외": 1673,
      "왹": 1674,
      "왼": 1675,
      "욀": 1676,
      "욈": 1677,
      "욌": 1678,
      "요": 1679,
      "욕": 1680,
      "욘": 1681,
      "욜": 1682,
      "욤": 1683,
      "욥": 1684,
      "욧": 1685,
      "용": 1686,
      "욬": 1687,
      "욯": 1688,
      "우": 1689,
      "욱": 1690,
      "운": 1691,
      "욷": 1692,
      "울": 1693,
      "욹": 1694,
      "욺": 1695,
      "움": 1696,
      "웁": 1697,
      "웃": 1698,
      "웄": 1699,
      "웅": 1700,
      "워": 1701,
      "웍": 1702,
      "원": 1703,
      "월": 1704,
      "웜": 1705,
      "웟": 1706,
      "웠": 1707,
      "웡": 1708,
      "웤": 1709,
      "웨": 1710,
      "웩": 1711,
      "웬": 1712,
      "웰": 1713,
      "웹": 1714,
      "웽": 1715,
      "윀": 1716,
      "위": 1717,
      "윅": 1718,
      "윈": 1719,
      "윌": 1720,
      "윔": 1721,
      "윖": 1722,
      "윗": 1723,
      "윘": 1724,
      "윙": 1725,
      "유": 1726,
      "육": 1727,
      "윤": 1728,
      "율": 1729,
      "윰": 1730,
      "윱": 1731,
      "윳": 1732,
      "융": 1733,
      "으": 1734,
      "윽": 1735,
      "은": 1736,
      "읃": 1737,
      "을": 1738,
      "읅": 1739,
      "읆": 1740,
      "읊": 1741,
      "음": 1742,
      "읍": 1743,
      "읎": 1744,
      "읏": 1745,
      "응": 1746,
      "읔": 1747,
      "읖": 1748,
      "의": 1749,
      "읭": 1750,
      "읮": 1751,
      "이": 1752,
      "익": 1753,
      "인": 1754,
      "읹": 1755,
      "읺": 1756,
      "일": 1757,
      "읽": 1758,
      "읿": 1759,
      "잃": 1760,
      "임": 1761,
      "입": 1762,
      "잇": 1763,
      "있": 1764,
      "잉": 1765,
      "잊": 1766,
      "잌": 1767,
      "잎": 1768,
      "잏": 1769,
      "자": 1770,
      "작": 1771,
      "잔": 1772,
      "잖": 1773,
      "잗": 1774,
      "잘": 1775,
      "잛": 1776,
      "잠": 1777,
      "잡": 1778,
      "잣": 1779,
      "잤": 1780,
      "장": 1781,
      "잦": 1782,
      "잫": 1783,
      "재": 1784,
      "잭": 1785,
      "잰": 1786,
      "잴": 1787,
      "잼": 1788,
      "잽": 1789,
      "잿": 1790,
      "쟁": 1791,
      "쟄": 1792,
      "쟈": 1793,
      "쟉": 1794,
      "쟎": 1795,
      "쟘": 1796,
      "쟙": 1797,
      "쟝": 1798,
      "쟞": 1799,
      "쟤": 1800,
      "쟨": 1801,
      "쟾": 1802,
      "저": 1803,
      "적": 1804,
      "전": 1805,
      "젅": 1806,
      "젆": 1807,
      "젇": 1808,
      "절": 1809,
      "젊": 1810,
      "젋": 1811,
      "점": 1812,
      "접": 1813,
      "젓": 1814,
      "젔": 1815,
      "정": 1816,
      "젖": 1817,
      "젛": 1818,
      "제": 1819,
      "젝": 1820,
      "젠": 1821,
      "젤": 1822,
      "젬": 1823,
      "젭": 1824,
      "젯": 1825,
      "져": 1826,
      "젹": 1827,
      "젼": 1828,
      "졀": 1829,
      "졈": 1830,
      "졉": 1831,
      "졋": 1832,
      "졌": 1833,
      "졍": 1834,
      "졎": 1835,
      "졏": 1836,
      "졓": 1837,
      "졔": 1838,
      "조": 1839,
      "족": 1840,
      "존": 1841,
      "졷": 1842,
      "졸": 1843,
      "좀": 1844,
      "좁": 1845,
      "좃": 1846,
      "종": 1847,
      "좆": 1848,
      "좇": 1849,
      "좉": 1850,
      "좊": 1851,
      "좋": 1852,
      "좌": 1853,
      "좍": 1854,
      "좐": 1855,
      "좔": 1856,
      "좝": 1857,
      "좠": 1858,
      "좡": 1859,
      "좢": 1860,
      "죄": 1861,
      "죈": 1862,
      "죗": 1863,
      "죙": 1864,
      "죠": 1865,
      "죤": 1866,
      "죨": 1867,
      "죳": 1868,
      "죴": 1869,
      "죵": 1870,
      "죶": 1871,
      "죷": 1872,
      "죸": 1873,
      "죻": 1874,
      "주": 1875,
      "죽": 1876,
      "준": 1877,
      "줄": 1878,
      "줌": 1879,
      "줍": 1880,
      "줏": 1881,
      "중": 1882,
      "줗": 1883,
      "줘": 1884,
      "줠": 1885,
      "줫": 1886,
      "줬": 1887,
      "줭": 1888,
      "줮": 1889,
      "줸": 1890,
      "쥇": 1891,
      "쥐": 1892,
      "쥑": 1893,
      "쥔": 1894,
      "쥘": 1895,
      "쥣": 1896,
      "쥤": 1897,
      "쥬": 1898,
      "쥰": 1899,
      "쥴": 1900,
      "쥼": 1901,
      "즁": 1902,
      "즈": 1903,
      "즉": 1904,
      "즌": 1905,
      "즐": 1906,
      "즘": 1907,
      "즛": 1908,
      "증": 1909,
      "즞": 1910,
      "즤": 1911,
      "지": 1912,
      "직": 1913,
      "짂": 1914,
      "진": 1915,
      "짅": 1916,
      "짇": 1917,
      "질": 1918,
      "짊": 1919,
      "짏": 1920,
      "짐": 1921,
      "집": 1922,
      "짓": 1923,
      "징": 1924,
      "짖": 1925,
      "짘": 1926,
      "짙": 1927,
      "짚": 1928,
      "짛": 1929,
      "짜": 1930,
      "짝": 1931,
      "짠": 1932,
      "짢": 1933,
      "짤": 1934,
      "짦": 1935,
      "짧": 1936,
      "짫": 1937,
      "짬": 1938,
      "짭": 1939,
      "짯": 1940,
      "짰": 1941,
      "짱": 1942,
      "짴": 1943,
      "째": 1944,
      "짼": 1945,
      "쨈": 1946,
      "쨉": 1947,
      "쨋": 1948,
      "쨌": 1949,
      "쨍": 1950,
      "쨓": 1951,
      "쨔": 1952,
      "쨘": 1953,
      "쨩": 1954,
      "쨰": 1955,
      "쩁": 1956,
      "쩃": 1957,
      "쩄": 1958,
      "쩌": 1959,
      "쩍": 1960,
      "쩐": 1961,
      "쩔": 1962,
      "쩖": 1963,
      "쩜": 1964,
      "쩝": 1965,
      "쩡": 1966,
      "쩧": 1967,
      "쩨": 1968,
      "쪄": 1969,
      "쪈": 1970,
      "쪘": 1971,
      "쪙": 1972,
      "쪠": 1973,
      "쪼": 1974,
      "쪽": 1975,
      "쪾": 1976,
      "쫀": 1977,
      "쫄": 1978,
      "쫌": 1979,
      "쫏": 1980,
      "쫑": 1981,
      "쫒": 1982,
      "쫓": 1983,
      "쫗": 1984,
      "쫘": 1985,
      "쫙": 1986,
      "쫭": 1987,
      "쬐": 1988,
      "쬬": 1989,
      "쭁": 1990,
      "쭈": 1991,
      "쭉": 1992,
      "쭊": 1993,
      "쭌": 1994,
      "쭐": 1995,
      "쭘": 1996,
      "쭙": 1997,
      "쭝": 1998,
      "쮜": 1999,
      "쮸": 2000,
      "쯔": 2001,
      "쯗": 2002,
      "쯤": 2003,
      "쯥": 2004,
      "쯧": 2005,
      "쯩": 2006,
      "쯪": 2007,
      "찌": 2008,
      "찍": 2009,
      "찎": 2010,
      "찐": 2011,
      "찔": 2012,
      "찜": 2013,
      "찝": 2014,
      "찟": 2015,
      "찡": 2016,
      "찢": 2017,
      "차": 2018,
      "착": 2019,
      "찬": 2020,
      "찮": 2021,
      "찯": 2022,
      "찰": 2023,
      "찱": 2024,
      "참": 2025,
      "찹": 2026,
      "찻": 2027,
      "찼": 2028,
      "창": 2029,
      "찾": 2030,
      "찿": 2031,
      "챃": 2032,
      "채": 2033,
      "책": 2034,
      "챈": 2035,
      "챌": 2036,
      "챔": 2037,
      "챕": 2038,
      "챗": 2039,
      "챘": 2040,
      "챙": 2041,
      "챠": 2042,
      "챡": 2043,
      "챤": 2044,
      "챦": 2045,
      "챨": 2046,
      "처": 2047,
      "척": 2048,
      "천": 2049,
      "철": 2050,
      "첨": 2051,
      "첩": 2052,
      "첫": 2053,
      "첬": 2054,
      "청": 2055,
      "첮": 2056,
      "체": 2057,
      "첵": 2058,
      "첸": 2059,
      "첼": 2060,
      "쳅": 2061,
      "쳇": 2062,
      "쳐": 2063,
      "쳔": 2064,
      "쳣": 2065,
      "쳤": 2066,
      "쳥": 2067,
      "쳫": 2068,
      "쳬": 2069,
      "초": 2070,
      "촉": 2071,
      "촌": 2072,
      "촏": 2073,
      "촐": 2074,
      "촘": 2075,
      "촛": 2076,
      "총": 2077,
      "촟": 2078,
      "촣": 2079,
      "촤": 2080,
      "촥": 2081,
      "촬": 2082,
      "촹": 2083,
      "쵁": 2084,
      "최": 2085,
      "쵝": 2086,
      "쵸": 2087,
      "쵼": 2088,
      "춋": 2089,
      "춌": 2090,
      "추": 2091,
      "축": 2092,
      "춘": 2093,
      "출": 2094,
      "춤": 2095,
      "춥": 2096,
      "춧": 2097,
      "충": 2098,
      "춰": 2099,
      "춴": 2100,
      "춸": 2101,
      "췃": 2102,
      "췄": 2103,
      "췌": 2104,
      "췟": 2105,
      "취": 2106,
      "췬": 2107,
      "츄": 2108,
      "츈": 2109,
      "츔": 2110,
      "츙": 2111,
      "츠": 2112,
      "측": 2113,
      "츤": 2114,
      "츨": 2115,
      "츰": 2116,
      "층": 2117,
      "츼": 2118,
      "츽": 2119,
      "칀": 2120,
      "치": 2121,
      "칙": 2122,
      "친": 2123,
      "칝": 2124,
      "칠": 2125,
      "침": 2126,
      "칩": 2127,
      "칫": 2128,
      "칭": 2129,
      "칰": 2130,
      "카": 2131,
      "칵": 2132,
      "칸": 2133,
      "칻": 2134,
      "칼": 2135,
      "캄": 2136,
      "캅": 2137,
      "캇": 2138,
      "캉": 2139,
      "캍": 2140,
      "캐": 2141,
      "캔": 2142,
      "캘": 2143,
      "캠": 2144,
      "캡": 2145,
      "캢": 2146,
      "캣": 2147,
      "캥": 2148,
      "캬": 2149,
      "캭": 2150,
      "컄": 2151,
      "커": 2152,
      "컥": 2153,
      "컨": 2154,
      "컬": 2155,
      "컴": 2156,
      "컵": 2157,
      "컷": 2158,
      "컸": 2159,
      "컹": 2160,
      "컼": 2161,
      "컾": 2162,
      "케": 2163,
      "켁": 2164,
      "켄": 2165,
      "켈": 2166,
      "켐": 2167,
      "켓": 2168,
      "켔": 2169,
      "켜": 2170,
      "켠": 2171,
      "켤": 2172,
      "켬": 2173,
      "켯": 2174,
      "켰": 2175,
      "코": 2176,
      "콕": 2177,
      "콘": 2178,
      "콜": 2179,
      "콤": 2180,
      "콥": 2181,
      "콧": 2182,
      "콩": 2183,
      "콬": 2184,
      "콮": 2185,
      "콯": 2186,
      "콰": 2187,
      "콱": 2188,
      "콴": 2189,
      "콸": 2190,
      "쾅": 2191,
      "쾌": 2192,
      "쾡": 2193,
      "쾨": 2194,
      "쿄": 2195,
      "쿈": 2196,
      "쿠": 2197,
      "쿡": 2198,
      "쿤": 2199,
      "쿨": 2200,
      "쿰": 2201,
      "쿳": 2202,
      "쿵": 2203,
      "쿸": 2204,
      "쿼": 2205,
      "퀀": 2206,
      "퀄": 2207,
      "퀘": 2208,
      "퀜": 2209,
      "퀭": 2210,
      "퀴": 2211,
      "퀵": 2212,
      "퀸": 2213,
      "퀼": 2214,
      "큐": 2215,
      "큘": 2216,
      "크": 2217,
      "큭": 2218,
      "큰": 2219,
      "클": 2220,
      "큼": 2221,
      "큽": 2222,
      "킁": 2223,
      "킄": 2224,
      "킈": 2225,
      "킌": 2226,
      "키": 2227,
      "킥": 2228,
      "킨": 2229,
      "킬": 2230,
      "킴": 2231,
      "킵": 2232,
      "킷": 2233,
      "킹": 2234,
      "킼": 2235,
      "타": 2236,
      "탁": 2237,
      "탄": 2238,
      "탆": 2239,
      "탈": 2240,
      "탉": 2241,
      "탐": 2242,
      "탑": 2243,
      "탓": 2244,
      "탔": 2245,
      "탕": 2246,
      "탗": 2247,
      "태": 2248,
      "택": 2249,
      "탠": 2250,
      "탤": 2251,
      "탬": 2252,
      "탭": 2253,
      "탯": 2254,
      "탱": 2255,
      "탸": 2256,
      "턀": 2257,
      "터": 2258,
      "턱": 2259,
      "턴": 2260,
      "털": 2261,
      "텀": 2262,
      "텁": 2263,
      "텃": 2264,
      "텅": 2265,
      "텈": 2266,
      "테": 2267,
      "텍": 2268,
      "텐": 2269,
      "텔": 2270,
      "템": 2271,
      "텝": 2272,
      "텟": 2273,
      "텡": 2274,
      "텨": 2275,
      "텼": 2276,
      "토": 2277,
      "톡": 2278,
      "톤": 2279,
      "톨": 2280,
      "톰": 2281,
      "톱": 2282,
      "통": 2283,
      "톼": 2284,
      "퇄": 2285,
      "퇘": 2286,
      "퇴": 2287,
      "툥": 2288,
      "투": 2289,
      "툭": 2290,
      "툰": 2291,
      "툴": 2292,
      "툼": 2293,
      "툿": 2294,
      "퉁": 2295,
      "퉜": 2296,
      "퉤": 2297,
      "퉷": 2298,
      "퉽": 2299,
      "튀": 2300,
      "튄": 2301,
      "튈": 2302,
      "튕": 2303,
      "튜": 2304,
      "튠": 2305,
      "튬": 2306,
      "튭": 2307,
      "트": 2308,
      "특": 2309,
      "튼": 2310,
      "튿": 2311,
      "틀": 2312,
      "틈": 2313,
      "틋": 2314,
      "틍": 2315,
      "틐": 2316,
      "틔": 2317,
      "티": 2318,
      "틱": 2319,
      "틴": 2320,
      "틸": 2321,
      "팀": 2322,
      "팁": 2323,
      "팅": 2324,
      "파": 2325,
      "팍": 2326,
      "팎": 2327,
      "판": 2328,
      "팔": 2329,
      "팜": 2330,
      "팝": 2331,
      "팟": 2332,
      "팠": 2333,
      "팡": 2334,
      "팥": 2335,
      "패": 2336,
      "팩": 2337,
      "팬": 2338,
      "팰": 2339,
      "팸": 2340,
      "팻": 2341,
      "팼": 2342,
      "팽": 2343,
      "퍼": 2344,
      "퍽": 2345,
      "펀": 2346,
      "펄": 2347,
      "펌": 2348,
      "펏": 2349,
      "펐": 2350,
      "펑": 2351,
      "페": 2352,
      "펙": 2353,
      "펜": 2354,
      "펠": 2355,
      "펩": 2356,
      "펫": 2357,
      "펭": 2358,
      "펴": 2359,
      "편": 2360,
      "펼": 2361,
      "폄": 2362,
      "폇": 2363,
      "폈": 2364,
      "평": 2365,
      "폐": 2366,
      "포": 2367,
      "폭": 2368,
      "폰": 2369,
      "폴": 2370,
      "폼": 2371,
      "폽": 2372,
      "폿": 2373,
      "퐁": 2374,
      "퐈": 2375,
      "퐉": 2376,
      "퐌": 2377,
      "퐛": 2378,
      "퐝": 2379,
      "퐠": 2380,
      "푀": 2381,
      "표": 2382,
      "푱": 2383,
      "푸": 2384,
      "푹": 2385,
      "푼": 2386,
      "풀": 2387,
      "품": 2388,
      "풉": 2389,
      "풋": 2390,
      "풍": 2391,
      "풓": 2392,
      "풔": 2393,
      "풕": 2394,
      "풰": 2395,
      "퓌": 2396,
      "퓨": 2397,
      "퓬": 2398,
      "퓰": 2399,
      "퓽": 2400,
      "프": 2401,
      "픈": 2402,
      "플": 2403,
      "픔": 2404,
      "픕": 2405,
      "피": 2406,
      "픽": 2407,
      "핀": 2408,
      "필": 2409,
      "핍": 2410,
      "핏": 2411,
      "핑": 2412,
      "핓": 2413,
      "핕": 2414,
      "하": 2415,
      "학": 2416,
      "핛": 2417,
      "한": 2418,
      "핟": 2419,
      "할": 2420,
      "핡": 2421,
      "핣": 2422,
      "핥": 2423,
      "핦": 2424,
      "핧": 2425,
      "함": 2426,
      "합": 2427,
      "핫": 2428,
      "핬": 2429,
      "항": 2430,
      "핮": 2431,
      "핯": 2432,
      "핰": 2433,
      "핱": 2434,
      "핳": 2435,
      "해": 2436,
      "핵": 2437,
      "핶": 2438,
      "핸": 2439,
      "핻": 2440,
      "핼": 2441,
      "햄": 2442,
      "햅": 2443,
      "햇": 2444,
      "했": 2445,
      "행": 2446,
      "햌": 2447,
      "햏": 2448,
      "햐": 2449,
      "햤": 2450,
      "향": 2451,
      "햫": 2452,
      "헀": 2453,
      "허": 2454,
      "헉": 2455,
      "헌": 2456,
      "헏": 2457,
      "헐": 2458,
      "헑": 2459,
      "험": 2460,
      "헙": 2461,
      "헛": 2462,
      "헝": 2463,
      "헠": 2464,
      "헣": 2465,
      "헤": 2466,
      "헥": 2467,
      "헨": 2468,
      "헬": 2469,
      "헴": 2470,
      "헵": 2471,
      "헷": 2472,
      "헸": 2473,
      "헹": 2474,
      "헿": 2475,
      "혀": 2476,
      "혁": 2477,
      "현": 2478,
      "혈": 2479,
      "혐": 2480,
      "협": 2481,
      "혓": 2482,
      "혔": 2483,
      "형": 2484,
      "혖": 2485,
      "혜": 2486,
      "호": 2487,
      "혹": 2488,
      "혼": 2489,
      "홀": 2490,
      "홈": 2491,
      "홉": 2492,
      "홋": 2493,
      "홍": 2494,
      "홐": 2495,
      "홓": 2496,
      "화": 2497,
      "확": 2498,
      "환": 2499,
      "활": 2500,
      "홥": 2501,
      "홧": 2502,
      "황": 2503,
      "홪": 2504,
      "홬": 2505,
      "홯": 2506,
      "홱": 2507,
      "회": 2508,
      "획": 2509,
      "횐": 2510,
      "횔": 2511,
      "횟": 2512,
      "횡": 2513,
      "횤": 2514,
      "효": 2515,
      "횬": 2516,
      "횽": 2517,
      "훃": 2518,
      "후": 2519,
      "훅": 2520,
      "훈": 2521,
      "훋": 2522,
      "훌": 2523,
      "훑": 2524,
      "훓": 2525,
      "훔": 2526,
      "훕": 2527,
      "훗": 2528,
      "훙": 2529,
      "훜": 2530,
      "훟": 2531,
      "훠": 2532,
      "훡": 2533,
      "훤": 2534,
      "훨": 2535,
      "훸": 2536,
      "훼": 2537,
      "휏": 2538,
      "휘": 2539,
      "휙": 2540,
      "휠": 2541,
      "휨": 2542,
      "휩": 2543,
      "휴": 2544,
      "휸": 2545,
      "휼": 2546,
      "흉": 2547,
      "흏": 2548,
      "흐": 2549,
      "흑": 2550,
      "흔": 2551,
      "흘": 2552,
      "흙": 2553,
      "흝": 2554,
      "흠": 2555,
      "흡": 2556,
      "흣": 2557,
      "흥": 2558,
      "흨": 2559,
      "흩": 2560,
      "흫": 2561,
      "희": 2562,
      "흰": 2563,
      "흳": 2564,
      "히": 2565,
      "힉": 2566,
      "힌": 2567,
      "힐": 2568,
      "힘": 2569,
      "힙": 2570,
      "힛": 2571,
      "힝": 2572,
      "힞": 2573,
      "힣": 2574,
      "##로": 2575,
      "##썬": 2576,
      "##리": 2577,
      "##는": 2578,
      "##듯": 2579,
      "##한": 2580,
      "##h": 2581,
      "##i": 2582,
      "##s": 2583,
      "##l": 2584,
      "##t": 2585,
      "##만": 2586,
      "##국": 2587,
      "##진": 2588,
      "##원": 2589,
      "##적": 2590,
      "##인": 2591,
      "##아": 2592,
      "##헤": 2593,
      "##매": 2594,
      "##이": 2595,
      "##합": 2596,
      "##하": 2597,
      "##네": 2598,
      "##요": 2599,
      "##머": 2600,
      "##속": 2601,
      "##잡": 2602,
      "##을": 2603,
      "##것": 2604,
      "##나": 2605,
      "##의": 2606,
      "##악": 2607,
      "##본": 2608,
      "##a": 2609,
      "##v": 2610,
      "##도": 2611,
      "##망": 2612,
      "##가": 2613,
      "##니": 2614,
      "##창": 2615,
      "##정": 2616,
      "##카": 2617,
      "##르": 2618,
      "##노": 2619,
      "##황": 2620,
      "##당": 2621,
      "##실": 2622,
      "##구": 2623,
      "##후": 2624,
      "##에": 2625,
      "##서": 2626,
      "##객": 2627,
      "##없": 2628,
      "##었": 2629,
      "##음": 2630,
      "##o": 2631,
      "##e": 2632,
      "##골": 2633,
      "##깡": 2634,
      "##촌": 2635,
      "##줄": 2636,
      "##쓴": 2637,
      "##쓰": 2638,
      "##면": 2639,
      "##래": 2640,
      "##짜": 2641,
      "##삼": 2642,
      "##류": 2643,
      "##저": 2644,
      "##질": 2645,
      "##라": 2646,
      "##마": 2647,
      "##ㅜ": 2648,
      "##다": 2649,
      "##시": 2650,
      "##상": 2651,
      "##주": 2652,
      "##혹": 2653,
      "##덩": 2654,
      "##어": 2655,
      "##비": 2656,
      "##걸": 2657,
      "##권": 2658,
      "##모": 2659,
      "##독": 2660,
      "##으": 2661,
      "##있": 2662,
      "##지": 2663,
      "##년": 2664,
      "##들": 2665,
      "##보": 2666,
      "##물": 2667,
      "##r": 2668,
      "##김": 2669,
      "##용": 2670,
      "##소": 2671,
      "##부": 2672,
      "##터": 2673,
      "##세": 2674,
      "##영": 2675,
      "##화": 2676,
      "##를": 2677,
      "##냐": 2678,
      "##사": 2679,
      "##때": 2680,
      "##바": 2681,
      "##퀴": 2682,
      "##막": 2683,
      "##벌": 2684,
      "##더": 2685,
      "##레": 2686,
      "##기": 2687,
      "##같": 2688,
      "##은": 2689,
      "##일": 2690,
      "##반": 2691,
      "##렷": 2692,
      "##료": 2693,
      "##봉": 2694,
      "##성": 2695,
      "##점": 2696,
      "##안": 2697,
      "##남": 2698,
      "##데": 2699,
      "##코": 2700,
      "##역": 2701,
      "##야": 2702,
      "##생": 2703,
      "##각": 2704,
      "##과": 2705,
      "##똥": 2706,
      "##멍": 2707,
      "##청": 2708,
      "##엔": 2709,
      "##티": 2710,
      "##브": 2711,
      "##스": 2712,
      "##고": 2713,
      "##백": 2714,
      "##무": 2715,
      "##찾": 2716,
      "##함": 2717,
      "##해": 2718,
      "##갈": 2719,
      "##동": 2720,
      "##문": 2721,
      "##큐": 2722,
      "##글": 2723,
      "##거": 2724,
      "##려": 2725,
      "##빵": 2726,
      "##트": 2727,
      "##할": 2728,
      "##수": 2729,
      "##겠": 2730,
      "##낼": 2731,
      "##밖": 2732,
      "##장": 2733,
      "##병": 2734,
      "##숙": 2735,
      "##처": 2736,
      "##받": 2737,
      "##맨": 2738,
      "##자": 2739,
      "##먼": 2740,
      "##치": 2741,
      "##행": 2742,
      "##설": 2743,
      "##디": 2744,
      "##금": 2745,
      "##듭": 2746,
      "##났": 2747,
      "##축": 2748,
      "##켜": 2749,
      "##미": 2750,
      "##ㅡ": 2751,
      "##오": 2752,
      "##루": 2753,
      "##력": 2754,
      "##드": 2755,
      "##듬": 2756,
      "##싱": 2757,
      "##우": 2758,
      "##취": 2759,
      "##퓨": 2760,
      "##타": 2761,
      "##앞": 2762,
      "##석": 2763,
      "##러": 2764,
      "##워": 2765,
      "##까": 2766,
      "##출": 2767,
      "##현": 2768,
      "##족": 2769,
      "##았": 2770,
      "##던": 2771,
      "##떤": 2772,
      "##낌": 2773,
      "##예": 2774,
      "##결": 2775,
      "##되": 2776,
      "##경": 2777,
      "##방": 2778,
      "##쩜": 2779,
      "##단": 2780,
      "##대": 2781,
      "##중": 2782,
      "##끼": 2783,
      "##게": 2784,
      "##유": 2785,
      "##곡": 2786,
      "##ㄴ": 2787,
      "##산": 2788,
      "##와": 2789,
      "##날": 2790,
      "##식": 2791,
      "##접": 2792,
      "##품": 2793,
      "##싫": 2794,
      "##봐": 2795,
      "##여": 2796,
      "##ㅎ": 2797,
      "##ㅅ": 2798,
      "##찍": 2799,
      "##분": 2800,
      "##운": 2801,
      "##갔": 2802,
      "##체": 2803,
      "##심": 2804,
      "##뛰": 2805,
      "##했": 2806,
      "##명": 2807,
      "##작": 2808,
      "##습": 2809,
      "##개": 2810,
      "##였": 2811,
      "##겨": 2812,
      "##립": 2813,
      "##투": 2814,
      "##파": 2815,
      "##내": 2816,
      "##먹": 2817,
      "##런": 2818,
      "##연": 2819,
      "##송": 2820,
      "##훈": 2821,
      "##계": 2822,
      "##찮": 2823,
      "##탄": 2824,
      "##전": 2825,
      "##w": 2826,
      "##될": 2827,
      "##느": 2828,
      "##좀": 2829,
      "##깝": 2830,
      "##능": 2831,
      "##른": 2832,
      "##밍": 2833,
      "##움": 2834,
      "##쩍": 2835,
      "##션": 2836,
      "##극": 2837,
      "##재": 2838,
      "##혀": 2839,
      "##령": 2840,
      "##딩": 2841,
      "##땜": 2842,
      "##못": 2843,
      "##텐": 2844,
      "##말": 2845,
      "##딱": 2846,
      "##떨": 2847,
      "##등": 2848,
      "##포": 2849,
      "##첨": 2850,
      "##않": 2851,
      "##법": 2852,
      "##슬": 2853,
      "##랑": 2854,
      "##박": 2855,
      "##키": 2856,
      "##필": 2857,
      "##뻔": 2858,
      "##책": 2859,
      "##읽": 2860,
      "##얘": 2861,
      "##버": 2862,
      "##린": 2863,
      "##프": 2864,
      "##ㄷ": 2865,
      "##공": 2866,
      "##ㅈ": 2867,
      "##험": 2868,
      "##익": 2869,
      "##란": 2870,
      "##교": 2871,
      "##킨": 2872,
      "##찬": 2873,
      "##학": 2874,
      "##쩔": 2875,
      "##럭": 2876,
      "##신": 2877,
      "##길": 2878,
      "##랍": 2879,
      "##굿": 2880,
      "##완": 2881,
      "##쟈": 2882,
      "##밋": 2883,
      "##또": 2884,
      "##싶": 2885,
      "##엇": 2886,
      "##친": 2887,
      "##관": 2888,
      "##뷰": 2889,
      "##륜": 2890,
      "##녀": 2891,
      "##감": 2892,
      "##회": 2893,
      "##임": 2894,
      "##얌": 2895,
      "##묘": 2896,
      "##왕": 2897,
      "##울": 2898,
      "##군": 2899,
      "##즈": 2900,
      "##럼": 2901,
      "##준": 2902,
      "##람": 2903,
      "##건": 2904,
      "##햐": 2905,
      "##락": 2906,
      "##너": 2907,
      "##입": 2908,
      "##춰": 2909,
      "##패": 2910,
      "##급": 2911,
      "##ㅋ": 2912,
      "##낯": 2913,
      "##샤": 2914,
      "##론": 2915,
      "##업": 2916,
      "##언": 2917,
      "##밌": 2918,
      "##잼": 2919,
      "##n": 2920,
      "##c": 2921,
      "##호": 2922,
      "##따": 2923,
      "##별": 2924,
      "##빠": 2925,
      "##웃": 2926,
      "##흑": 2927,
      "##흥": 2928,
      "##광": 2929,
      "##픈": 2930,
      "##갯": 2931,
      "##뭐": 2932,
      "##메": 2933,
      "##테": 2934,
      "##쥬": 2935,
      "##싼": 2936,
      "##틀": 2937,
      "##봤": 2938,
      "##릴": 2939,
      "##선": 2940,
      "##페": 2941,
      "##닝": 2942,
      "##씩": 2943,
      "##념": 2944,
      "##토": 2945,
      "##크": 2946,
      "##된": 2947,
      "##번": 2948,
      "##제": 2949,
      "##퍼": 2950,
      "##온": 2951,
      "##g": 2952,
      "##담": 2953,
      "##ㅠ": 2954,
      "##쉽": 2955,
      "##두": 2956,
      "##희": 2957,
      "##간": 2958,
      "##히": 2959,
      "##복": 2960,
      "##긴": 2961,
      "##차": 2962,
      "##격": 2963,
      "##며": 2964,
      "##낫": 2965,
      "##잇": 2966,
      "##렸": 2967,
      "##천": 2968,
      "##술": 2969,
      "##위": 2970,
      "##림": 2971,
      "##팀": 2972,
      "##씬": 2973,
      "##엘": 2974,
      "##팍": 2975,
      "##직": 2976,
      "##애": 2977,
      "##름": 2978,
      "##좋": 2979,
      "##럴": 2980,
      "##콤": 2981,
      "##k": 2982,
      "##뎈": 2983,
      "##꼬": 2984,
      "##민": 2985,
      "##굳": 2986,
      "##새": 2987,
      "##순": 2988,
      "##몫": 2989,
      "##추": 2990,
      "##그": 2991,
      "##꼼": 2992,
      "##멸": 2993,
      "##셨": 2994,
      "##얼": 2995,
      "##ㅇ": 2996,
      "##랜": 2997,
      "##달": 2998,
      "##됨": 2999,
      "##범": 3000,
      "##참": 3001,
      "##랄": 3002,
      "##조": 3003,
      "##닙": 3004,
      "##뜩": 3005,
      "##컬": 3006,
      "##탱": 3007,
      "##편": 3008,
      "##벅": 3009,
      "##돈": 3010,
      "##벤": 3011,
      "##쳐": 3012,
      "##뿐": 3013,
      "##평": 3014,
      "##케": 3015,
      "##외": 3016,
      "##즐": 3017,
      "##판": 3018,
      "##ㅔ": 3019,
      "##겟": 3020,
      "##피": 3021,
      "##컵": 3022,
      "##흙": 3023,
      "##숩": 3024,
      "##퀸": 3025,
      "##줘": 3026,
      "##귀": 3027,
      "##욥": 3028,
      "##목": 3029,
      "##발": 3030,
      "##색": 3031,
      "##깔": 3032,
      "##봣": 3033,
      "##풀": 3034,
      "##졌": 3035,
      "##냥": 3036,
      "##볼": 3037,
      "##훗": 3038,
      "##싖": 3039,
      "##ㄱ": 3040,
      "##짧": 3041,
      "##납": 3042,
      "##꼭": 3043,
      "##겁": 3044,
      "##끝": 3045,
      "##북": 3046,
      "##휴": 3047,
      "##돌": 3048,
      "##표": 3049,
      "##꽃": 3050,
      "##혼": 3051,
      "##!": 3052,
      "##.": 3053,
      "##잔": 3054,
      "##뭘": 3055,
      "##채": 3056,
      "##넘": 3057,
      "##핏": 3058,
      "##불": 3059,
      "##쌍": 3060,
      "##섹": 3061,
      "##뜨": 3062,
      "##x": 3063,
      "##겐": 3064,
      "##왜": 3065,
      "##올": 3066,
      "##렇": 3067,
      "##궐": 3068,
      "##획": 3069,
      "##배": 3070,
      "##근": 3071,
      "##퀄": 3072,
      "##엄": 3073,
      "##많": 3074,
      "##뜻": 3075,
      "##줌": 3076,
      "##겼": 3077,
      "##몰": 3078,
      "##양": 3079,
      "##총": 3080,
      "##향": 3081,
      "##ㅣ": 3082,
      "##닌": 3083,
      "##련": 3084,
      "##집": 3085,
      "##꿈": 3086,
      "##탈": 3087,
      "##롯": 3088,
      "##종": 3089,
      "##옥": 3090,
      "##응": 3091,
      "##닥": 3092,
      "##태": 3093,
      "##떡": 3094,
      "##앗": 3095,
      "##균": 3096,
      "##형": 3097,
      "##킹": 3098,
      "##떻": 3099,
      "##든": 3100,
      "##깊": 3101,
      "##써": 3102,
      "##놨": 3103,
      "##렌": 3104,
      "##틴": 3105,
      "##붕": 3106,
      "##난": 3107,
      "##폐": 3108,
      "##캐": 3109,
      "##릭": 3110,
      "##짐": 3111,
      "##억": 3112,
      "##쩌": 3113,
      "##죠": 3114,
      "##플": 3115,
      "##릿": 3116,
      "##꼈": 3117,
      "##답": 3118,
      "##훼": 3119,
      "##둘": 3120,
      "##궁": 3121,
      "##잘": 3122,
      "##널": 3123,
      "##슴": 3124,
      "##끈": 3125,
      "##웨": 3126,
      "##덴": 3127,
      "##읍": 3128,
      "##곱": 3129,
      "##살": 3130,
      "##숍": 3131,
      "##혓": 3132,
      "##젤": 3133,
      "##턴": 3134,
      "##럽": 3135,
      "##죽": 3136,
      "##쟁": 3137,
      "##척": 3138,
      "##됐": 3139,
      "##뻐": 3140,
      "##탁": 3141,
      "##흔": 3142,
      "##놔": 3143,
      "##둥": 3144,
      "##빙": 3145,
      "##절": 3146,
      "##랫": 3147,
      "##록": 3148,
      "##됩": 3149,
      "##팅": 3150,
      "##콩": 3151,
      "##틱": 3152,
      "##욤": 3153,
      "##꼇": 3154,
      "##충": 3155,
      "##짱": 3156,
      "##닷": 3157,
      "##씨": 3158,
      "##손": 3159,
      "##괴": 3160,
      "##랭": 3161,
      "##롱": 3162,
      "##끔": 3163,
      "##떄": 3164,
      "##칵": 3165,
      "##톤": 3166,
      "##님": 3167,
      "##존": 3168,
      "##빡": 3169,
      "##봄": 3170,
      "##츠": 3171,
      "##짓": 3172,
      "##뇌": 3173,
      "##께": 3174,
      "##렀": 3175,
      "##왔": 3176,
      "##몽": 3177,
      "##슨": 3178,
      "##맥": 3179,
      "##혈": 3180,
      "##풋": 3181,
      "##뻣": 3182,
      "##렵": 3183,
      "##알": 3184,
      "##빼": 3185,
      "##몸": 3186,
      "##쁘": 3187,
      "##뺀": 3188,
      "##커": 3189,
      "##놓": 3190,
      "##져": 3191,
      "##끗": 3192,
      "##벙": 3193,
      "##즌": 3194,
      "##택": 3195,
      "##슷": 3196,
      "##큼": 3197,
      "##밴": 3198,
      "##누": 3199,
      "##활": 3200,
      "##쉬": 3201,
      "##웟": 3202,
      "##댈": 3203,
      "##뤘": 3204,
      "##ㅛ": 3205,
      "##ㅏ": 3206,
      "##ㅊ": 3207,
      "##뉴": 3208,
      "##켰": 3209,
      "##b": 3210,
      "##웠": 3211,
      "##통": 3212,
      "##찡": 3213,
      "##율": 3214,
      "##팬": 3215,
      "##침": 3216,
      "##톡": 3217,
      "##튀": 3218,
      "##톨": 3219,
      "##셈": 3220,
      "##강": 3221,
      "##찰": 3222,
      "##p": 3223,
      "##f": 3224,
      "##끄": 3225,
      "##섭": 3226,
      "##철": 3227,
      "##밥": 3228,
      "##십": 3229,
      "##펜": 3230,
      "##첩": 3231,
      "##냄": 3232,
      "##롭": 3233,
      "##깍": 3234,
      "##왓": 3235,
      "##엿": 3236,
      "##효": 3237,
      "##맞": 3238,
      "##닐": 3239,
      "##욱": 3240,
      "##댓": 3241,
      "##농": 3242,
      "##협": 3243,
      "##램": 3244,
      "##늠": 3245,
      "##덤": 3246,
      "##콜": 3247,
      "##돋": 3248,
      "##육": 3249,
      "##젠": 3250,
      "##쥐": 3251,
      "##득": 3252,
      "##승": 3253,
      "##량": 3254,
      "##낸": 3255,
      "##옴": 3256,
      "##잖": 3257,
      "##팔": 3258,
      "##붐": 3259,
      "##벼": 3260,
      "##곤": 3261,
      "##웅": 3262,
      "##빗": 3263,
      "##놈": 3264,
      "##덕": 3265,
      "##돼": 3266,
      "##링": 3267,
      "##빤": 3268,
      "##딴": 3269,
      "##최": 3270,
      "##짚": 3271,
      "##덟": 3272,
      "##뮤": 3273,
      "##폭": 3274,
      "##뀌": 3275,
      "##륙": 3276,
      "##앤": 3277,
      "##놀": 3278,
      "##넹": 3279,
      "##뉠": 3280,
      "##칙": 3281,
      "##짤": 3282,
      "##쿨": 3283,
      "##됴": 3284,
      "##긋": 3285,
      "##궈": 3286,
      "##멜": 3287,
      "##홍": 3288,
      "##샷": 3289,
      "##꾸": 3290,
      "##앵": 3291,
      "##꿔": 3292,
      "##룡": 3293,
      "##옵": 3294,
      "##촘": 3295,
      "##븅": 3296,
      "##떼": 3297,
      "##규": 3298,
      "##슈": 3299,
      "##햇": 3300,
      "##촬": 3301,
      "##쪄": 3302,
      "##셔": 3303,
      "##껴": 3304,
      "##힘": 3305,
      "##걍": 3306,
      "##쳤": 3307,
      "##됬": 3308,
      "##압": 3309,
      "##튜": 3310,
      "##쩡": 3311,
      "##높": 3312,
      "##겹": 3313,
      "##j": 3314,
      "##숭": 3315,
      "##환": 3316,
      "##깐": 3317,
      "##늦": 3318,
      "##?": 3319,
      "##갑": 3320,
      "##벗": 3321,
      "##잉": 3322,
      "##좌": 3323,
      "##깜": 3324,
      "##숨": 3325,
      "##값": 3326,
      "##땅": 3327,
      "##d": 3328,
      "##컨": 3329,
      "##변": 3330,
      "##꺼": 3331,
      "##눈": 3332,
      "##ㅐ": 3333,
      "##열": 3334,
      "##닿": 3335,
      "##랐": 3336,
      "##빛": 3337,
      "##뻥": 3338,
      "##줬": 3339,
      "##즘": 3340,
      "##웍": 3341,
      "##꽉": 3342,
      "##죄": 3343,
      "##젼": 3344,
      "##렉": 3345,
      "##ㅄ": 3346,
      "##짝": 3347,
      "##닫": 3348,
      "##펙": 3349,
      "##닮": 3350,
      "##쿠": 3351,
      "##찌": 3352,
      "##ㅁ": 3353,
      "##쭈": 3354,
      "##뤼": 3355,
      "##털": 3356,
      "##맛": 3357,
      "##윤": 3358,
      "##튼": 3359,
      "##확": 3360,
      "##흘": 3361,
      "##특": 3362,
      "##딫": 3363,
      "##힌": 3364,
      "##퇴": 3365,
      "##낀": 3366,
      "##징": 3367,
      "##녕": 3368,
      "##셀": 3369,
      "##폰": 3370,
      "##멋": 3371,
      "##베": 3372,
      "##밀": 3373,
      "##초": 3374,
      "##욕": 3375,
      "##겔": 3376,
      "##녘": 3377,
      "##뽕": 3378,
      "##암": 3379,
      "##랔": 3380,
      "##왘": 3381,
      "##뭥": 3382,
      "##밐": 3383,
      "##쇼": 3384,
      "##믹": 3385,
      "##굼": 3386,
      "##룩": 3387,
      "##졸": 3388,
      "##률": 3389,
      "##항": 3390,
      "##늘": 3391,
      "##약": 3392,
      "##깨": 3393,
      "##봅": 3394,
      "##굴": 3395,
      "##측": 3396,
      "##둔": 3397,
      "##월": 3398,
      "##둠": 3399,
      "##뭔": 3400,
      "##꽝": 3401,
      "##묵": 3402,
      "##믄": 3403,
      "##빨": 3404,
      "##헀": 3405,
      "##띄": 3406,
      "##흠": 3407,
      "##뻑": 3408,
      "##혜": 3409,
      "##낮": 3410,
      "##떔": 3411,
      "##껄": 3412,
      "##꿀": 3413,
      "##욘": 3414,
      "##멘": 3415,
      "##액": 3416,
      "##벽": 3417,
      "##혁": 3418,
      "##딜": 3419,
      "##딘": 3420,
      "##착": 3421,
      "##듀": 3422,
      "##춘": 3423,
      "##폼": 3424,
      "##렛": 3425,
      "##컥": 3426,
      "##델": 3427,
      "##픽": 3428,
      "##윀": 3429,
      "##째": 3430,
      "##떴": 3431,
      "##썽": 3432,
      "##롬": 3433,
      "##혐": 3434,
      "##ㄹ": 3435,
      "##넌": 3436,
      "##퀀": 3437,
      "##쨰": 3438,
      "##염": 3439,
      "##뚱": 3440,
      "##견": 3441,
      "##갖": 3442,
      "##u": 3443,
      "##섬": 3444,
      "##콧": 3445,
      "##옄": 3446,
      "##뒤": 3447,
      "##벨": 3448,
      "##욯": 3449,
      "##텔": 3450,
      "##ㅓ": 3451,
      "##핵": 3452,
      "##떠": 3453,
      "##눠": 3454,
      "##둬": 3455,
      "##쓸": 3456,
      "##q": 3457,
      "##얹": 3458,
      "##췄": 3459,
      "##풍": 3460,
      "##쯤": 3461,
      "##륵": 3462,
      "##됫": 3463,
      "##릉": 3464,
      "##돠": 3465,
      "##빈": 3466,
      "##허": 3467,
      "##겄": 3468,
      "##빌": 3469,
      "##낚": 3470,
      "##칸": 3471,
      "##싹": 3472,
      "##끌": 3473,
      "##땐": 3474,
      "##켓": 3475,
      "##볶": 3476,
      "##쁜": 3477,
      "##팽": 3478,
      "##몬": 3479,
      "##땡": 3480,
      "##쭉": 3481,
      "##휘": 3482,
      "##랬": 3483,
      "##핍": 3484,
      "##증": 3485,
      "##쾌": 3486,
      "##삭": 3487,
      "##y": 3488,
      "##'": 3489,
      "##텨": 3490,
      "##옹": 3491,
      "##m": 3492,
      "##맑": 3493,
      "##괄": 3494,
      "##칠": 3495,
      "##뢰": 3496,
      "##밟": 3497,
      "##엽": 3498,
      "##섯": 3499,
      "##핡": 3500,
      "##맷": 3501,
      "##싸": 3502,
      "##캠": 3503,
      "##셰": 3504,
      "##푼": 3505,
      "##밑": 3506,
      "##꽥": 3507,
      "##펠": 3508,
      "##믿": 3509,
      "##쌩": 3510,
      "##왑": 3511,
      "##깁": 3512,
      "##텝": 3513,
      "##컷": 3514,
      "##블": 3515,
      "##몇": 3516,
      "##갓": 3517,
      "##밤": 3518,
      "##딸": 3519,
      "##퉁": 3520,
      "##콘": 3521,
      "##랙": 3522,
      "##톱": 3523,
      "##깸": 3524,
      "##껏": 3525,
      "##긍": 3526,
      "##녹": 3527,
      "##렐": 3528,
      "##칼": 3529,
      "##횐": 3530,
      "##낄": 3531,
      "##ㅆ": 3532,
      "##쇠": 3533,
      "##뚝": 3534,
      "##댕": 3535,
      "##틋": 3536,
      "##밧": 3537,
      "##쪽": 3538,
      "##및": 3539,
      "##ㅃ": 3540,
      "##딧": 3541,
      "##겸": 3542,
      "##잃": 3543,
      "##줍": 3544,
      "##층": 3545,
      "##밭": 3546,
      "##똘": 3547,
      "##뭉": 3548,
      "##엌": 3549,
      "##쏘": 3550,
      "##봇": 3551,
      "##낰": 3552,
      "##쑤": 3553,
      "##꾼": 3554,
      "##꼽": 3555,
      "##ㅌ": 3556,
      "##둡": 3557,
      "##홀": 3558,
      "##,": 3559,
      "##넣": 3560,
      "##렴": 3561,
      "##묻": 3562,
      "##끆": 3563,
      "##넬": 3564,
      "##쁨": 3565,
      "##엉": 3566,
      "##괜": 3567,
      "##럿": 3568,
      "##맹": 3569,
      "##딕": 3570,
      "##닉": 3571,
      "##싯": 3572,
      "##폴": 3573,
      "##엠": 3574,
      "##좡": 3575,
      "##뼜": 3576,
      "##밸": 3577,
      "##ㅂ": 3578,
      "##틈": 3579,
      "##솟": 3580,
      "##캔": 3581,
      "##잭": 3582,
      "##뎁": 3583,
      "##클": 3584,
      "##뇨": 3585,
      "##흐": 3586,
      "##랴": 3587,
      "##캅": 3588,
      "##엣": 3589,
      "##푸": 3590,
      "##략": 3591,
      "##썸": 3592,
      "##팁": 3593,
      "##븐": 3594,
      "##센": 3595,
      "##씹": 3596,
      "##쵝": 3597,
      "##곳": 3598,
      "##햅": 3599,
      "##뷔": 3600,
      "##z": 3601,
      "##듣": 3602,
      "##껀": 3603,
      "##낭": 3604,
      "##뺨": 3605,
      "##탑": 3606,
      "##솜": 3607,
      "##셧": 3608,
      "##렁": 3609,
      "##킬": 3610,
      "##쇄": 3611,
      "##잠": 3612,
      "##춤": 3613,
      "##넷": 3614,
      "##셉": 3615,
      "##뻤": 3616,
      "##삐": 3617,
      "##똗": 3618,
      "##므": 3619,
      "##눌": 3620,
      "##륭": 3621,
      "##땟": 3622,
      "##찐": 3623,
      "##탕": 3624,
      "##뼈": 3625,
      "##썩": 3626,
      "##얄": 3627,
      "##낑": 3628,
      "##맘": 3629,
      "##쯔": 3630,
      "##갤": 3631,
      "##옆": 3632,
      "##뿌": 3633,
      "##됄": 3634,
      "##냈": 3635,
      "##섞": 3636,
      "##펑": 3637,
      "##옿": 3638,
      "##닼": 3639,
      "##탠": 3640,
      "##냉": 3641,
      "##꼴": 3642,
      "##검": 3643,
      "##칭": 3644,
      "##챙": 3645,
      "##뎀": 3646,
      "##죤": 3647,
      "##례": 3648,
      "##옼": 3649,
      "##곸": 3650,
      "##즉": 3651,
      "##ㅕ": 3652,
      "##찜": 3653,
      "##렬": 3654,
      "##앜": 3655,
      "##딥": 3656,
      "##똑": 3657,
      "##웁": 3658,
      "##ㄳ": 3659,
      "##큰": 3660,
      "##롤": 3661,
      "##논": 3662,
      "##쑈": 3663,
      "##옷": 3664,
      "##녔": 3665,
      "##찿": 3666,
      "##얻": 3667,
      "##핫": 3668,
      "##좆": 3669,
      "##댔": 3670,
      "##뽑": 3671,
      "##뇔": 3672,
      "##랏": 3673,
      "##컴": 3674,
      "##냅": 3675,
      "##엑": 3676,
      "##욷": 3677,
      "##챠": 3678,
      "##쥴": 3679,
      "##씀": 3680,
      "##룸": 3681,
      "##뭇": 3682,
      "##땀": 3683,
      "##딨": 3684,
      "##샀": 3685,
      "##쏙": 3686,
      "##뺏": 3687,
      "##훌": 3688,
      "##깃": 3689,
      "##굉": 3690,
      "##뵈": 3691,
      "##룰": 3692,
      "##솔": 3693,
      "##갱": 3694,
      "##앙": 3695,
      "##탐": 3696,
      "##팥": 3697,
      "##괸": 3698,
      "##혔": 3699,
      "##픔": 3700,
      "##샬": 3701,
      "##팰": 3702,
      "##귈": 3703,
      "##뤽": 3704,
      "##낙": 3705,
      "##흉": 3706,
      "##쏠": 3707,
      "##펏": 3708,
      "##윈": 3709,
      "##뭡": 3710,
      "##댐": 3711,
      "##햄": 3712,
      "##펀": 3713,
      "##옛": 3714,
      "##캉": 3715,
      "##잎": 3716,
      "##갬": 3717,
      "##템": 3718,
      "##킷": 3719,
      "##앨": 3720,
      "##훨": 3721,
      "##뜬": 3722,
      "##릇": 3723,
      "##멀": 3724,
      "##늣": 3725,
      "##흡": 3726,
      "##웜": 3727,
      "##잤": 3728,
      "##볍": 3729,
      "##챦": 3730,
      "##켠": 3731,
      "##힐": 3732,
      "##툰": 3733,
      "##붙": 3734,
      "##믈": 3735,
      "##틸": 3736,
      "##썼": 3737,
      "##씽": 3738,
      "##뱀": 3739,
      "##뜸": 3740,
      "##댄": 3741,
      "##툭": 3742,
      "##엎": 3743,
      "##껍": 3744,
      "##밉": 3745,
      "##쫌": 3746,
      "##얔": 3747,
      "##샘": 3748,
      "##밨": 3749,
      "##뎅": 3750,
      "##댣": 3751,
      "##숴": 3752,
      "##벳": 3753,
      "##넼": 3754,
      "##놉": 3755,
      "##삿": 3756,
      "##엮": 3757,
      "##겻": 3758,
      "##핀": 3759,
      "##켈": 3760,
      "##헐": 3761,
      "##읎": 3762,
      "##졔": 3763,
      "##ㅉ": 3764,
      "##챘": 3765,
      "##빔": 3766,
      "##쪙": 3767,
      "##갛": 3768,
      "##흰": 3769,
      "##핼": 3770,
      "##뀐": 3771,
      "##땔": 3772,
      "##홈": 3773,
      "##렘": 3774,
      "##욬": 3775,
      "##곰": 3776,
      "##뽀": 3777,
      "##큘": 3778,
      "##넛": 3779,
      "##뒈": 3780,
      "##졋": 3781,
      "##뉜": 3782,
      "##넴": 3783,
      "##헌": 3784,
      "##쨘": 3785,
      "##탓": 3786,
      "##퓽": 3787,
      "##숫": 3788,
      "##쟝": 3789,
      "##첼": 3790,
      "##뺴": 3791,
      "##뺍": 3792,
      "##띵": 3793,
      "##쌈": 3794,
      "##ㅢ": 3795,
      "##럈": 3796,
      "##뵜": 3797,
      "##룻": 3798,
      "##ㅍ": 3799,
      "##뤠": 3800,
      "##삽": 3801,
      "##윌": 3802,
      "##헬": 3803,
      "##냔": 3804,
      "##헝": 3805,
      "##릣": 3806,
      "##빽": 3807,
      "##늙": 3808,
      "##멧": 3809,
      "##맙": 3810,
      "##쫒": 3811,
      "##긔": 3812,
      "##쨌": 3813,
      "##죵": 3814,
      "##빅": 3815,
      "##뱅": 3816,
      "##셍": 3817,
      "##뜯": 3818,
      "##팠": 3819,
      "##맄": 3820,
      "##뤄": 3821,
      "##팡": 3822,
      "##뎌": 3823,
      "##핑": 3824,
      "##쩐": 3825,
      "##벡": 3826,
      "##쉐": 3827,
      "##찝": 3828,
      "##펐": 3829,
      "##뿔": 3830,
      "##쨩": 3831,
      "##왼": 3832,
      "##팩": 3833,
      "##맣": 3834,
      "##떳": 3835,
      "##돕": 3836,
      "##땈": 3837,
      "##젓": 3838,
      "##늑": 3839,
      "##촉": 3840,
      "##췃": 3841,
      "##쮸": 3842,
      "##걱": 3843,
      "##깅": 3844,
      "##쿡": 3845,
      "##쉴": 3846,
      "##뗄": 3847,
      "##쳣": 3848,
      "##콕": 3849,
      "##녁": 3850,
      "##귄": 3851,
      "##ㅗ": 3852,
      "##쉅": 3853,
      "##햌": 3854,
      "##깟": 3855,
      "##덜": 3856,
      "##끽": 3857,
      "##섀": 3858,
      "##곀": 3859,
      "##됻": 3860,
      "##찟": 3861,
      "##썻": 3862,
      "##쨍": 3863,
      "##좃": 3864,
      "##쿼": 3865,
      "##졉": 3866,
      "##밎": 3867,
      "##핳": 3868,
      "##짖": 3869,
      "##걷": 3870,
      "##잣": 3871,
      "##홥": 3872,
      "##봨": 3873,
      "##쎄": 3874,
      "##셋": 3875,
      "##뺐": 3876,
      "##겈": 3877,
      "##욌": 3878,
      "##쩄": 3879,
      "##겡": 3880,
      "##윙": 3881,
      "##꿐": 3882,
      "##샨": 3883,
      "##뜰": 3884,
      "##잌": 3885,
      "##휠": 3886,
      "##젊": 3887,
      "##씁": 3888,
      "##둑": 3889,
      "##훤": 3890,
      "##셐": 3891,
      "##읏": 3892,
      "##즛": 3893,
      "##욧": 3894,
      "##눅": 3895,
      "##앉": 3896,
      "##펭": 3897,
      "##츄": 3898,
      "##힛": 3899,
      "##꿨": 3900,
      "##탤": 3901,
      "##곽": 3902,
      "##섰": 3903,
      "##펴": 3904,
      "##랩": 3905,
      "##얀": 3906,
      "##켐": 3907,
      "##갸": 3908,
      "##ㄲ": 3909,
      "##겉": 3910,
      "##핥": 3911,
      "##챤": 3912,
      "##뺑": 3913,
      "##셴": 3914,
      "##쌉": 3915,
      "##샌": 3916,
      "##쫭": 3917,
      "##욜": 3918,
      "##멓": 3919,
      "##곘": 3920,
      "##뎃": 3921,
      "##룬": 3922,
      "##뚜": 3923,
      "##륨": 3924,
      "##뿜": 3925,
      "##텅": 3926,
      "##찢": 3927,
      "##꽈": 3928,
      "##캡": 3929,
      "##슐": 3930,
      "##밝": 3931,
      "##킵": 3932,
      "##ㄶ": 3933,
      "##낳": 3934,
      "##덥": 3935,
      "##쌔": 3936,
      "##쭐": 3937,
      "##쥔": 3938,
      "##볔": 3939,
      "##쉰": 3940,
      "##퍽": 3941,
      "##뉨": 3942,
      "##윗": 3943,
      "##괘": 3944,
      "##댁": 3945,
      "##앓": 3946,
      "##팟": 3947,
      "##훔": 3948,
      "##뉘": 3949,
      "##쭝": 3950,
      "##짘": 3951,
      "##쁠": 3952,
      "##삘": 3953,
      "##푹": 3954,
      "##덮": 3955,
      "##잊": 3956,
      "##윅": 3957,
      "##홉": 3958,
      "##깬": 3959,
      "##쓱": 3960,
      "##싑": 3961,
      "##쏭": 3962,
      "##빴": 3963,
      "##멱": 3964,
      "##듸": 3965,
      "##굶": 3966,
      "##펄": 3967,
      "##옳": 3968,
      "##킼": 3969,
      "##됌": 3970,
      "##끊": 3971,
      "##쵸": 3972,
      "##뫄": 3973,
      "##꿋": 3974,
      "##셩": 3975,
      "##젖": 3976,
      "##삶": 3977,
      "##듦": 3978,
      "##뇬": 3979,
      "##렜": 3980,
      "##숀": 3981,
      "##쿄": 3982,
      "##읃": 3983,
      "##궂": 3984,
      "##넨": 3985,
      "##킴": 3986,
      "##쒸": 3987,
      "##켄": 3988,
      "##녜": 3989,
      "##쉘": 3990,
      "##얐": 3991,
      "##딛": 3992,
      "##닠": 3993,
      "##좉": 3994,
      "##캘": 3995,
      "##헛": 3996,
      "##굷": 3997,
      "##싡": 3998,
      "##옌": 3999,
      "##붓": 4000,
      "##닦": 4001,
      "##냌": 4002,
      "##룹": 4003,
      "##쿵": 4004,
      "##헨": 4005,
      "##땨": 4006,
      "##쪘": 4007,
      "##겅": 4008,
      "##웰": 4009,
      "##숲": 4010,
      "##밓": 4011,
      "##슉": 4012,
      "##븜": 4013,
      "##뵙": 4014,
      "##쭙": 4015,
      "##쯧": 4016,
      "##찼": 4017,
      "##졎": 4018,
      "##걑": 4019,
      "##띨": 4020,
      "##쫄": 4021,
      "##캣": 4022,
      "##웡": 4023,
      "##빕": 4024,
      "##앴": 4025,
      "##쌤": 4026,
      "##윽": 4027,
      "##캬": 4028,
      "##꼮": 4029,
      "##딪": 4030,
      "##젝": 4031,
      "##맺": 4032,
      "##컸": 4033,
      "##츰": 4034,
      "##젯": 4035,
      "##쌀": 4036,
      "##끙": 4037,
      "##넓": 4038,
      "##짬": 4039,
      "##탉": 4040,
      "##꽤": 4041,
      "##깎": 4042,
      "##맡": 4043,
      "##괞": 4044,
      "##칩": 4045,
      "##찔": 4046,
      "##텀": 4047,
      "##뚫": 4048,
      "##녈": 4049,
      "##깼": 4050,
      "##팝": 4051,
      "##팜": 4052,
      "##샵": 4053,
      "##댜": 4054,
      "##뻘": 4055,
      "##앍": 4056,
      "##떈": 4057,
      "##좔": 4058,
      "##헹": 4059,
      "##녓": 4060,
      "##햤": 4061,
      "##쏴": 4062,
      "##넙": 4063,
      "##띠": 4064,
      "##릅": 4065,
      "##긱": 4066,
      "##엥": 4067,
      "##펼": 4068,
      "##픕": 4069,
      "##폈": 4070,
      "##숑": 4071,
      "##갇": 4072,
      "##겜": 4073,
      "##ㅑ": 4074,
      "##셜": 4075,
      "##흣": 4076,
      "##쫀": 4077,
      "##컾": 4078,
      "##탭": 4079,
      "##깥": 4080,
      "##덧": 4081,
      "##얇": 4082,
      "##퉷": 4083,
      "##꺅": 4084,
      "##뀔": 4085,
      "##쉡": 4086,
      "##짠": 4087,
      "##꽂": 4088,
      "##툴": 4089,
      "##뽄": 4090,
      "##첸": 4091,
      "##롄": 4092,
      "##넫": 4093,
      "##솧": 4094,
      "##ㄸ": 4095,
      "##힝": 4096,
      "##쏨": 4097,
      "##폇": 4098,
      "##꿧": 4099,
      "##샛": 4100,
      "##횟": 4101,
      "##둣": 4102,
      "##샜": 4103,
      "##뢈": 4104,
      "##샥": 4105,
      "##랗": 4106,
      "##왈": 4107,
      "##썅": 4108,
      "##뎐": 4109,
      "##헠": 4110,
      "##붉": 4111,
      "##튈": 4112,
      "##껐": 4113,
      "##냇": 4114,
      "##쯩": 4115,
      "##맠": 4116,
      "##톰": 4117,
      "##욈": 4118,
      "##융": 4119,
      "##셸": 4120,
      "##홬": 4121,
      "##탆": 4122,
      "##쥘": 4123,
      "##귯": 4124,
      "##맴": 4125,
      "##혖": 4126,
      "##썜": 4127,
      "##쏟": 4128,
      "##닛": 4129,
      "##릎": 4130,
      "##팻": 4131,
      "##갠": 4132,
      "##옇": 4133,
      "##냑": 4134,
      "##끓": 4135,
      "##쨋": 4136,
      "##숟": 4137,
      "##땠": 4138,
      "##씸": 4139,
      "##튿": 4140,
      "##넥": 4141,
      "##쟤": 4142,
      "##쥣": 4143,
      "##뭣": 4144,
      "##쎀": 4145,
      "##샴": 4146,
      "##핯": 4147,
      "##겪": 4148,
      "##쏔": 4149,
      "##귐": 4150,
      "##퀘": 4151,
      "##뫘": 4152,
      "##끕": 4153,
      "##얍": 4154,
      "##샐": 4155,
      "##눔": 4156,
      "##쌘": 4157,
      "##쳬": 4158,
      "##뱉": 4159,
      "##벵": 4160,
      "##톼": 4161,
      "##퓰": 4162,
      "##꺄": 4163,
      "##딤": 4164,
      "##먀": 4165,
      "##앚": 4166,
      "##퉜": 4167,
      "##돔": 4168,
      "##헷": 4169,
      "##꺽": 4170,
      "##롸": 4171,
      "##됀": 4172,
      "##헉": 4173,
      "##젬": 4174,
      "##뒀": 4175,
      "##갗": 4176,
      "##냠": 4177,
      "##늬": 4178,
      "##꽁": 4179,
      "##씌": 4180,
      "##웹": 4181,
      "##힞": 4182,
      "##킥": 4183,
      "##쿤": 4184,
      "##곻": 4185,
      "##첫": 4186,
      "##쫑": 4187,
      "##퉤": 4188,
      "##짢": 4189,
      "##횽": 4190,
      "##슝": 4191,
      "##렙": 4192,
      "##켬": 4193,
      "##힣": 4194,
      "##ㄻ": 4195,
      "##몹": 4196,
      "##떙": 4197,
      "##넉": 4198,
      "##뻬": 4199,
      "##멩": 4200,
      "##닏": 4201,
      "##뚯": 4202,
      "##쨉": 4203,
      "##칫": 4204,
      "##깄": 4205,
      "##쫓": 4206,
      "##놬": 4207,
      "##쫘": 4208,
      "##쪼": 4209,
      "##깈": 4210,
      "##짴": 4211,
      "##텍": 4212,
      "##횡": 4213,
      "##툼": 4214,
      "##왠": 4215,
      "##볕": 4216,
      "##똠": 4217,
      "##짙": 4218,
      "##됏": 4219,
      "##뛴": 4220,
      "##뵛": 4221,
      "##뎄": 4222,
      "##돜": 4223,
      "##뼘": 4224,
      "##봊": 4225,
      "##볻": 4226,
      "##씻": 4227,
      "##몀": 4228,
      "##넜": 4229,
      "##쌓": 4230,
      "##웽": 4231,
      "##곧": 4232,
      "##엪": 4233,
      "##뀜": 4234,
      "##쟎": 4235,
      "##첵": 4236,
      "##썰": 4237,
      "##곅": 4238,
      "##랰": 4239,
      "##퇘": 4240,
      "##돗": 4241,
      "##깩": 4242,
      "##걔": 4243,
      "##빳": 4244,
      "##늡": 4245,
      "##옮": 4246,
      "##웄": 4247,
      "##뗴": 4248,
      "##졈": 4249,
      "##썌": 4250,
      "##턱": 4251,
      "##췌": 4252,
      "##눕": 4253,
      "##찻": 4254,
      "##갉": 4255,
      "##꺙": 4256,
      "##꾱": 4257,
      "##랽": 4258,
      "##룕": 4259,
      "##뷁": 4260,
      "##잏": 4261,
      "##갰": 4262,
      "##탔": 4263,
      "##쉣": 4264,
      "##줏": 4265,
      "##뿡": 4266,
      "##쳇": 4267,
      "##븬": 4268,
      "##뼛": 4269,
      "##뻗": 4270,
      "##깞": 4271,
      "##킈": 4272,
      "##흏": 4273,
      "##겧": 4274,
      "##떽": 4275,
      "##쒯": 4276,
      "##닭": 4277,
      "##쨔": 4278,
      "##탯": 4279,
      "##뚤": 4280,
      "##껑": 4281,
      "##뤡": 4282,
      "##멎": 4283,
      "##뎠": 4284,
      "##곁": 4285,
      "##텈": 4286,
      "##봈": 4287,
      "##앰": 4288,
      "##멌": 4289,
      "##젹": 4290,
      "##뮌": 4291,
      "##휼": 4292,
      "##깽": 4293,
      "##핧": 4294,
      "##앟": 4295,
      "##넿": 4296,
      "##멈": 4297,
      "##밈": 4298,
      "##샹": 4299,
      "##겋": 4300,
      "##컹": 4301,
      "##낲": 4302,
      "##랖": 4303,
      "##챃": 4304,
      "##잦": 4305,
      "##헴": 4306,
      "##좐": 4307,
      "##좁": 4308,
      "##쪠": 4309,
      "##땃": 4310,
      "##늰": 4311,
      "##귬": 4312,
      "##훙": 4313,
      "##넢": 4314,
      "##꿉": 4315,
      "##듴": 4316,
      "##끅": 4317,
      "##웬": 4318,
      "##짰": 4319,
      "##졍": 4320,
      "##쎼": 4321,
      "##랃": 4322,
      "##눼": 4323,
      "##놧": 4324,
      "##켯": 4325,
      "##쏜": 4326,
      "##슛": 4327,
      "##짼": 4328,
      "##줠": 4329,
      "##닳": 4330,
      "##읔": 4331,
      "##콥": 4332,
      "##훅": 4333,
      "##볐": 4334,
      "##낏": 4335,
      "##힙": 4336,
      "##밷": 4337,
      "##먠": 4338,
      "##낱": 4339,
      "##섶": 4340,
      "##쉥": 4341,
      "##뷸": 4342,
      "##콬": 4343,
      "##뵐": 4344,
      "##웤": 4345,
      "##췬": 4346,
      "##긬": 4347,
      "##왤": 4348,
      "##멤": 4349,
      "##쓔": 4350,
      "##쌌": 4351,
      "##잰": 4352,
      "##읮": 4353,
      "##퐠": 4354,
      "##벋": 4355,
      "##ㅝ": 4356,
      "##챔": 4357,
      "##냨": 4358,
      "##봬": 4359,
      "##땋": 4360,
      "##솤": 4361,
      "##첬": 4362,
      "##킄": 4363,
      "##쩃": 4364,
      "##똔": 4365,
      "##춌": 4366,
      "##ㅀ": 4367,
      "##헏": 4368,
      "##짛": 4369,
      "##킁": 4370,
      "##윱": 4371,
      "##텼": 4372,
      "##꼐": 4373,
      "##줫": 4374,
      "##끋": 4375,
      "##묶": 4376,
      "##띤": 4377,
      "##삔": 4378,
      "##쏫": 4379,
      "##껬": 4380,
      "##갚": 4381,
      "##츔": 4382,
      "##꾹": 4383,
      "##롁": 4384,
      "##쎌": 4385,
      "##뒷": 4386,
      "##뮈": 4387,
      "##딍": 4388,
      "##춥": 4389,
      "##쳫": 4390,
      "##켔": 4391,
      "##믺": 4392,
      "##뭄": 4393,
      "##츨": 4394,
      "##헿": 4395,
      "##폿": 4396,
      "##뇽": 4397,
      "##윖": 4398,
      "##귘": 4399,
      "##뮬": 4400,
      "##뛸": 4401,
      "##퐁": 4402,
      "##홋": 4403,
      "##줭": 4404,
      "##댰": 4405,
      "##죸": 4406,
      "##콸": 4407,
      "##ㅘ": 4408,
      "##헵": 4409,
      "##뿍": 4410,
      "##맬": 4411,
      "##셌": 4412,
      "##굽": 4413,
      "##맸": 4414,
      "##눊": 4415,
      "##쟞": 4416,
      "##컄": 4417,
      "##왁": 4418,
      "##멕": 4419,
      "##핶": 4420,
      "##괭": 4421,
      "##먄": 4422,
      "##읅": 4423,
      "##썹": 4424,
      "##싢": 4425,
      "##끾": 4426,
      "##흨": 4427,
      "##엨": 4428,
      "##껌": 4429,
      "##믓": 4430,
      "##섴": 4431,
      "##퀼": 4432,
      "##홧": 4433,
      "##뀩": 4434,
      "##쩝": 4435,
      "##쾡": 4436,
      "##슌": 4437,
      "##줮": 4438,
      "##쒕": 4439,
      "##씪": 4440,
      "##짂": 4441,
      "##챌": 4442,
      "##셤": 4443,
      "##젛": 4444,
      "##쐬": 4445,
      "##햏": 4446,
      "##엾": 4447,
      "##캇": 4448,
      "##큭": 4449,
      "##핸": 4450,
      "##쳥": 4451,
      "##낍": 4452,
      "##팎": 4453,
      "##갘": 4454,
      "##맵": 4455,
      "##뱍": 4456,
      "##촐": 4457,
      "##벸": 4458,
      "##꿎": 4459,
      "##걀": 4460,
      "##쥑": 4461,
      "##꼅": 4462,
      "##짭": 4463,
      "##붆": 4464,
      "##갵": 4465,
      "##얗": 4466,
      "##쎠": 4467,
      "##뀨": 4468,
      "##럤": 4469,
      "##됑": 4470,
      "##뢍": 4471,
      "##츈": 4472,
      "##뿅": 4473,
      "##솢": 4474,
      "##슾": 4475,
      "##뫼": 4476,
      "##긁": 4477,
      "##꺾": 4478,
      "##뿰": 4479,
      "##쟘": 4480,
      "##쭘": 4481,
      "##툥": 4482,
      "##쎘": 4483,
      "##숏": 4484,
      "##묨": 4485,
      "##쎤": 4486,
      "##겤": 4487,
      "##틍": 4488,
      "##땍": 4489,
      "##앳": 4490,
      "##떵": 4491,
      "##쌕": 4492,
      "##쒜": 4493,
      "##빢": 4494,
      "##넖": 4495,
      "##찹": 4496,
      "##쎔": 4497,
      "##쉒": 4498,
      "##뚬": 4499,
      "##엊": 4500,
      "##몄": 4501,
      "##쨈": 4502,
      "##뜷": 4503,
      "##땁": 4504,
      "##룽": 4505,
      "##헥": 4506,
      "##홯": 4507,
      "##챈": 4508,
      "##핟": 4509,
      "##빋": 4510,
      "##슥": 4511,
      "##뎡": 4512,
      "##삳": 4513,
      "##쫙": 4514,
      "##쳔": 4515,
      "##흫": 4516,
      "##쾅": 4517,
      "##윳": 4518,
      "##쑨": 4519,
      "##싷": 4520,
      "##섳": 4521,
      "##뜀": 4522,
      "##탬": 4523,
      "##솨": 4524,
      "##뤰": 4525,
      "##밬": 4526,
      "##넝": 4527,
      "##짯": 4528,
      "##ㄺ": 4529,
      "##맟": 4530,
      "##띀": 4531,
      "##덷": 4532,
      "##뵹": 4533,
      "##샣": 4534,
      "##넸": 4535,
      "##븟": 4536,
      "##낞": 4537,
      "##줸": 4538,
      "##쩨": 4539,
      "##쁩": 4540,
      "##닻": 4541,
      "##룯": 4542,
      "##뱌": 4543,
      "##랟": 4544,
      "##늄": 4545,
      "##솀": 4546,
      "##싴": 4547,
      "##룔": 4548,
      "##몃": 4549,
      "##뽁": 4550,
      "##붸": 4551,
      "##덛": 4552,
      "##귝": 4553,
      "##냬": 4554,
      "##솝": 4555,
      "##릏": 4556,
      "##윔": 4557,
      "##꿍": 4558,
      "##슼": 4559,
      "##끠": 4560,
      "##윰": 4561,
      "##뜽": 4562,
      "##칀": 4563,
      "##꺠": 4564,
      "##뽐": 4565,
      "##엡": 4566,
      "##겓": 4567,
      "##펫": 4568,
      "##쥤": 4569,
      "##쀨": 4570,
      "##쿰": 4571,
      "##뤌": 4572,
      "##뵤": 4573,
      "##졷": 4574,
      "##짦": 4575,
      "##뱃": 4576,
      "##꿰": 4577,
      "##헸": 4578,
      "##꿇": 4579,
      "##띈": 4580,
      "##꾀": 4581,
      "##밫": 4582,
      "##왝": 4583,
      "##큽": 4584,
      "##촤": 4585,
      "##쌰": 4586,
      "##븡": 4587,
      "##둿": 4588,
      "##얏": 4589,
      "##옶": 4590,
      "##댘": 4591,
      "##햫": 4592,
      "##졀": 4593,
      "##죨": 4594,
      "##쏩": 4595,
      "##홪": 4596,
      "##뚠": 4597,
      "##츤": 4598,
      "##맍": 4599,
      "##떘": 4600,
      "##섺": 4601,
      "##윘": 4602,
      "##깰": 4603,
      "##컼": 4604,
      "##겝": 4605,
      "##츼": 4606,
      "##쭁": 4607,
      "##삥": 4608,
      "##뎋": 4609,
      "##쥇": 4610,
      "##핦": 4611,
      "##쟄": 4612,
      "##댖": 4613,
      "##봫": 4614,
      "##븍": 4615,
      "##낔": 4616,
      "##풕": 4617,
      "##껭": 4618,
      "##귱": 4619,
      "##훡": 4620,
      "##섿": 4621,
      "##뎜": 4622,
      "##믜": 4623,
      "##듧": 4624,
      "##틐": 4625,
      "##킌": 4626,
      "##놘": 4627,
      "##쑬": 4628,
      "##싰": 4629,
      "##봴": 4630,
      "##싄": 4631,
      "##핰": 4632,
      "##즁": 4633,
      "##늉": 4634,
      "##삤": 4635,
      "##캄": 4636,
      "##봘": 4637,
      "##쐌": 4638,
      "##랠": 4639,
      "##깠": 4640,
      "##잫": 4641,
      "##ㅖ": 4642,
      "##땝": 4643,
      "##씰": 4644,
      "##앱": 4645,
      "##쬬": 4646,
      "##덯": 4647,
      "##탸": 4648,
      "##흳": 4649,
      "##굯": 4650,
      "##핬": 4651,
      "##볓": 4652,
      "##뗼": 4653,
      "##궤": 4654,
      "##섵": 4655,
      "##흩": 4656,
      "##퐈": 4657,
      "##핛": 4658,
      "##슺": 4659,
      "##웩": 4660,
      "##꼰": 4661,
      "##굵": 4662,
      "##쥼": 4663,
      "##렠": 4664,
      "##릋": 4665,
      "##앋": 4666,
      "##쑥": 4667,
      "##뼉": 4668,
      "##핱": 4669,
      "##뽜": 4670,
      "##욀": 4671,
      "##꾜": 4672,
      "##텡": 4673,
      "##쑝": 4674,
      "##휸": 4675,
      "##쨓": 4676,
      "##껜": 4677,
      "##횬": 4678,
      "##섥": 4679,
      "##냣": 4680,
      "##놕": 4681,
      "##댇": 4682,
      "##눙": 4683,
      "##섷": 4684,
      "##앀": 4685,
      "##튭": 4686,
      "##얕": 4687,
      "##훟": 4688,
      "##엏": 4689,
      "##헑": 4690,
      "##푀": 4691,
      "##덨": 4692,
      "##슭": 4693,
      "##죻": 4694,
      "##툿": 4695,
      "##쿈": 4696,
      "##뗀": 4697,
      "##줗": 4698,
      "##좍": 4699,
      "##짇": 4700,
      "##냊": 4701,
      "##멐": 4702,
      "##헣": 4703,
      "##듷": 4704,
      "##맂": 4705,
      "##륒": 4706,
      "##챡": 4707,
      "##릐": 4708,
      "##뒹": 4709,
      "##젆": 4710,
      "##롷": 4711,
      "##뀰": 4712,
      "##댬": 4713,
      "##퐉": 4714,
      "##꾿": 4715,
      "##깤": 4716,
      "##렝": 4717,
      "##핻": 4718,
      "##튬": 4719,
      "##쪈": 4720,
      "##칰": 4721,
      "##귓": 4722,
      "##싀": 4723,
      "##샠": 4724,
      "##돟": 4725,
      "##딬": 4726,
      "##릳": 4727,
      "##꼿": 4728,
      "##쩧": 4729,
      "##횤": 4730,
      "##찯": 4731,
      "##깉": 4732,
      "##슁": 4733,
      "##얙": 4734,
      "##곃": 4735,
      "##쾨": 4736,
      "##폄": 4737,
      "##ㅟ": 4738,
      "##썪": 4739,
      "##뱔": 4740,
      "##넀": 4741,
      "##읭": 4742,
      "##땸": 4743,
      "##앸": 4744,
      "##뭍": 4745,
      "##옂": 4746,
      "##맗": 4747,
      "##셕": 4748,
      "##빰": 4749,
      "##샙": 4750,
      "##꿘": 4751,
      "##옜": 4752,
      "##돤": 4753,
      "##쓉": 4754,
      "##졓": 4755,
      "##앖": 4756,
      "##춧": 4757,
      "##뢔": 4758,
      "##뽈": 4759,
      "##홱": 4760,
      "##묭": 4761,
      "##휏": 4762,
      "##꿬": 4763,
      "##귻": 4764,
      "##긛": 4765,
      "##젋": 4766,
      "##챗": 4767,
      "##빝": 4768,
      "##츙": 4769,
      "##쎗": 4770,
      "##롹": 4771,
      "##턀": 4772,
      "##휙": 4773,
      "##콮": 4774,
      "##퇄": 4775,
      "##홐": 4776,
      "##땄": 4777,
      "##뮨": 4778,
      "##엲": 4779,
      "##쐈": 4780,
      "##좝": 4781,
      "##봙": 4782,
      "##쒀": 4783,
      "##샊": 4784,
      "##짏": 4785,
      "##짊": 4786,
      "##칻": 4787,
      "##덱": 4788,
      "##닁": 4789,
      "##껃": 4790,
      "##홓": 4791,
      "##갅": 4792,
      "##녿": 4793,
      "##댸": 4794,
      "##팸": 4795,
      "##섲": 4796,
      "##욺": 4797,
      "##춋": 4798,
      "##훃": 4799,
      "##놑": 4800,
      "##늴": 4801,
      "##랒": 4802,
      "##핮": 4803,
      "##읹": 4804,
      "##꼳": 4805,
      "##붅": 4806,
      "##닊": 4807,
      "##붑": 4808,
      "##뽯": 4809,
      "##륺": 4810,
      "##쬐": 4811,
      "##맜": 4812,
      "##텁": 4813,
      "##쉈": 4814,
      "##뎍": 4815,
      "##쀼": 4816,
      "##쯗": 4817,
      "##샡": 4818,
      "##춸": 4819,
      "##뭨": 4820,
      "##귿": 4821,
      "##퉽": 4822,
      "##젅": 4823,
      "##믐": 4824,
      "##옰": 4825,
      "##놃": 4826,
      "##븨": 4827,
      "##궜": 4828,
      "##깻": 4829,
      "##꽄": 4830,
      "##럔": 4831,
      "##찎": 4832,
      "##ㅞ": 4833,
      "##튠": 4834,
      "##껒": 4835,
      "##뢀": 4836,
      "##ㅒ": 4837,
      "##켁": 4838,
      "##닟": 4839,
      "##탗": 4840,
      "##닺": 4841,
      "##듵": 4842,
      "##뿨": 4843,
      "##곪": 4844,
      "##넒": 4845,
      "##앎": 4846,
      "##껰": 4847,
      "##륄": 4848,
      "##읊": 4849,
      "##쑴": 4850,
      "##롴": 4851,
      "##숰": 4852,
      "##젔": 4853,
      "##봑": 4854,
      "##쮜": 4855,
      "##띰": 4856,
      "##떰": 4857,
      "##쎈": 4858,
      "##곷": 4859,
      "##꺇": 4860,
      "##렿": 4861,
      "##퐛": 4862,
      "##좠": 4863,
      "##쭊": 4864,
      "##뇰": 4865,
      "##쥰": 4866,
      "##옾": 4867,
      "##꽦": 4868,
      "..": 4869,
      "영화": 4870,
      "...": 4871,
      "##ㅋㅋ": 4872,
      "##영화": 4873,
      "##니다": 4874,
      "##는데": 4875,
      "너무": 4876,
      "재미": 4877,
      "##..": 4878,
      "##으로": 4879,
      "##지만": 4880,
      "정말": 4881,
      "##하고": 4882,
      "##네요": 4883,
      "재밌": 4884,
      "##에서": 4885,
      "진짜": 4886,
      "!!": 4887,
      "연기": 4888,
      "##하는": 4889,
      "##어요": 4890,
      "최고": 4891,
      "평점": 4892,
      "이런": 4893,
      "##토리": 4894,
      "##습니다": 4895,
      "##이다": 4896,
      "....": 4897,
      "##하다": 4898,
      "##라마": 4899,
      "생각": 4900,
      "스토리": 4901,
      "##들이": 4902,
      "##ㅋㅋㅋㅋ": 4903,
      "감동": 4904,
      "보고": 4905,
      "##까지": 4906,
      "##하게": 4907,
      "지루": 4908,
      "##!!": 4909,
      "##이라": 4910,
      "드라마": 4911,
      "##었다": 4912,
      "그냥": 4913,
      "##보다": 4914,
      "배우": 4915,
      "재미있": 4916,
      "내용": 4917,
      "아니": 4918,
      "##레기": 4919,
      "사람": 4920,
      "감독": 4921,
      "##면서": 4922,
      "만들": 4923,
      "##....": 4924,
      "시간": 4925,
      "재미없": 4926,
      "##해서": 4927,
      "##적인": 4928,
      "##다는": 4929,
      "쓰레기": 4930,
      "사랑": 4931,
      "##렇게": 4932,
      "##리고": 4933,
      "보는": 4934,
      "ㅋㅋ": 4935,
      "영화를": 4936,
      "다시": 4937,
      "좋은": 4938,
      "좋아": 4939,
      "##지막": 4940,
      "##보고": 4941,
      "이거": 4942,
      "##으면": 4943,
      "이건": 4944,
      "마지막": 4945,
      "영화가": 4946,
      "영화는": 4947,
      "##라고": 4948,
      "작품": 4949,
      "내가": 4950,
      "##들의": 4951,
      "완전": 4952,
      "##지는": 4953,
      "##ㅠㅠ": 4954,
      "액션": 4955,
      "봤는데": 4956,
      "최고의": 4957,
      "없는": 4958,
      "기대": 4959,
      "##입니다": 4960,
      "##하지": 4961,
      "##인공": 4962,
      "##다가": 4963,
      "ㅋㅋㅋ": 4964,
      "좋았": 4965,
      "있는": 4966,
      "하나": 4967,
      "처음": 4968,
      "##다고": 4969,
      "지금": 4970,
      "한국": 4971,
      "##야기": 4972,
      "##어서": 4973,
      "??": 4974,
      "이게": 4975,
      "##세요": 4976,
      "없다": 4977,
      "##없는": 4978,
      "나오": 4979,
      "최악": 4980,
      "##적이": 4981,
      "##같은": 4982,
      "이렇게": 4983,
      "하는": 4984,
      "!!!": 4985,
      "##인데": 4986,
      "##들은": 4987,
      "별로": 4988,
      "모르": 4989,
      "연출": 4990,
      "##에게": 4991,
      "아깝": 4992,
      "이해": 4993,
      "##대로": 4994,
      "##적으로": 4995,
      "역시": 4996,
      "그리고": 4997,
      "##이나": 4998,
      "그래": 4999,
      "##부터": 5000,
      "##겠다": 5001,
      "우리": 5002,
      "명작": 5003,
      "##있는": 5004,
      "느낌": 5005,
      "##한다": 5006,
      "평점이": 5007,
      "이야기": 5008,
      "##했다": 5009,
      "기억": 5010,
      "재밌게": 5011,
      "아이": 5012,
      "##되는": 5013,
      "이영화": 5014,
      "많이": 5015,
      "괜찮": 5016,
      "여자": 5017,
      "##합니다": 5018,
      "##라는": 5019,
      "##oo": 5020,
      "장면": 5021,
      "그런": 5022,
      "##지도": 5023,
      "##정도": 5024,
      "##주는": 5025,
      "아름": 5026,
      ",,": 5027,
      "##연기": 5028,
      "주인공": 5029,
      "만든": 5030,
      "##문에": 5031,
      "아까": 5032,
      "ㅠㅠ": 5033,
      "ㅎㅎ": 5034,
      "##리는": 5035,
      "마음": 5036,
      "일본": 5037,
      "공포": 5038,
      "보여": 5039,
      "같은": 5040,
      "아무": 5041,
      "유치": 5042,
      "##았다": 5043,
      "무슨": 5044,
      "아닌": 5045,
      "##만에": 5046,
      "##것도": 5047,
      "##배우": 5048,
      "결말": 5049,
      "현실": 5050,
      "##사람": 5051,
      "##을까": 5052,
      "##아서": 5053,
      "볼만": 5054,
      "몰입": 5055,
      "소재": 5056,
      "##가는": 5057,
      "없고": 5058,
      "##없이": 5059,
      "다른": 5060,
      "가장": 5061,
      "##하나": 5062,
      "##었는데": 5063,
      "이상": 5064,
      "##하기": 5065,
      "아깝다": 5066,
      "남자": 5067,
      "보면": 5068,
      "반전": 5069,
      "보기": 5070,
      "##인가": 5071,
      "원작": 5072,
      "스릴": 5073,
      "##드라마": 5074,
      "짜증": 5075,
      "가슴": 5076,
      "##ㅋㅋㅋㅋㅋㅋㅋㅋ": 5077,
      "매력": 5078,
      "##없다": 5079,
      "##였다": 5080,
      "말이": 5081,
      "눈물": 5082,
      "ㅡㅡ": 5083,
      "애니": 5084,
      "##드는": 5085,
      "##니까": 5086,
      "##하면": 5087,
      "##구나": 5088,
      "##나는": 5089,
      "정도": 5090,
      "음악": 5091,
      "##!!!!": 5092,
      "##인지": 5093,
      "영화다": 5094,
      "##미디": 5095,
      "인생": 5096,
      "##스럽": 5097,
      "영상": 5098,
      "##이고": 5099,
      "인간": 5100,
      "대한": 5101,
      "##재미": 5102,
      "##는지": 5103,
      ".....": 5104,
      "전개": 5105,
      "##는다": 5106,
      "##봐도": 5107,
      "솔직": 5108,
      "있다": 5109,
      "##너무": 5110,
      "만들어": 5111,
      "##릭터": 5112,
      "##려고": 5113,
      "극장": 5114,
      "많은": 5115,
      "하지만": 5116,
      "##었던": 5117,
      "모든": 5118,
      "아직": 5119,
      "##지마": 5120,
      "##지않": 5121,
      "##보는": 5122,
      "##더라": 5123,
      "##스러": 5124,
      "아름다": 5125,
      "##아요": 5126,
      "한번": 5127,
      "억지": 5128,
      "##지고": 5129,
      "필요": 5130,
      "##에는": 5131,
      "##리즈": 5132,
      "##나서": 5133,
      "끝까지": 5134,
      "##하지만": 5135,
      "하고": 5136,
      "이제": 5137,
      "##처럼": 5138,
      "솔직히": 5139,
      "##재밌": 5140,
      "수준": 5141,
      "##다니": 5142,
      "뭔가": 5143,
      "##........": 5144,
      "배우들": 5145,
      "##ㅋㅋㅋ": 5146,
      "전혀": 5147,
      "##었음": 5148,
      "봐도": 5149,
      "재밋": 5150,
      "추천": 5151,
      "아주": 5152,
      "여운": 5153,
      "##나오": 5154,
      "모두": 5155,
      "##스터": 5156,
      "##중에": 5157,
      "캐릭터": 5158,
      "연기력": 5159,
      "대박": 5160,
      "##메이": 5161,
      "코미디": 5162,
      "실망": 5163,
      "##떻게": 5164,
      "긴장": 5165,
      "##는거": 5166,
      "그래도": 5167,
      "공감": 5168,
      "##했던": 5169,
      "좋다": 5170,
      "엄청": 5171,
      "##들을": 5172,
      "가족": 5173,
      "##??": 5174,
      "##나라": 5175,
      "같다": 5176,
      "##이는": 5177,
      "이걸": 5178,
      "근데": 5179,
      "##리가": 5180,
      "최악의": 5181,
      "개봉": 5182,
      "봤다": 5183,
      "##주고": 5184,
      "대단": 5185,
      "##기도": 5186,
      "어떻게": 5187,
      "##장면": 5188,
      "##을때": 5189,
      "계속": 5190,
      "##이지": 5191,
      "##스트": 5192,
      "나온": 5193,
      "##진짜": 5194,
      "##ㅎㅎ": 5195,
      "##건지": 5196,
      "영화의": 5197,
      "잔잔": 5198,
      "재미있게": 5199,
      "##에도": 5200,
      "대사": 5201,
      "##이랑": 5202,
      "재밌다": 5203,
      "##라도": 5204,
      "제목": 5205,
      "흥미": 5206,
      "내내": 5207,
      "어이": 5208,
      "어디": 5209,
      "##수록": 5210,
      "##때문에": 5211,
      "표현": 5212,
      "영화에": 5213,
      "##없고": 5214,
      "보다": 5215,
      "##만들": 5216,
      "##했는데": 5217,
      "않고": 5218,
      "##하네요": 5219,
      "##던데": 5220,
      "##수가": 5221,
      "진심": 5222,
      "아쉽": 5223,
      "잼있": 5224,
      "##었어요": 5225,
      "아니라": 5226,
      "내용이": 5227,
      "##생각": 5228,
      "개인": 5229,
      "요즘": 5230,
      "그렇": 5231,
      "모습": 5232,
      "##기는": 5233,
      "##어야": 5234,
      "스릴러": 5235,
      "조금": 5236,
      "##주인공": 5237,
      "##타임": 5238,
      "##봤는데": 5239,
      "긴장감": 5240,
      "##내내": 5241,
      "떨어": 5242,
      "##이라는": 5243,
      "나오는": 5244,
      "아쉬": 5245,
      "연기가": 5246,
      "기분": 5247,
      "막장": 5248,
      "않은": 5249,
      "##하네": 5250,
      "##기에": 5251,
      "##영화는": 5252,
      "내용도": 5253,
      "아니다": 5254,
      "##성이": 5255,
      "재미도": 5256,
      "연기도": 5257,
      "시리즈": 5258,
      "##전에": 5259,
      "##라리": 5260,
      "오랜": 5261,
      "##한테": 5262,
      "제대로": 5263,
      "재미없다": 5264,
      "아름다운": 5265,
      "느껴": 5266,
      "중간": 5267,
      "봐야": 5268,
      "나는": 5269,
      "알바": 5270,
      "##보면": 5271,
      "##리오": 5272,
      "##어도": 5273,
      "그러": 5274,
      "자체": 5275,
      "특히": 5276,
      "##리스": 5277,
      "보다가": 5278,
      "제작": 5279,
      "##해요": 5280,
      "스토리가": 5281,
      "미국": 5282,
      "제일": 5283,
      "시간이": 5284,
      "##만큼": 5285,
      "##다면": 5286,
      "부족": 5287,
      "나름": 5288,
      "!!!!": 5289,
      "웃기": 5290,
      "정신": 5291,
      "감독이": 5292,
      "##하면서": 5293,
      "노래": 5294,
      "##으나": 5295,
      "점도": 5296,
      "##들도": 5297,
      "##이상": 5298,
      "만드는": 5299,
      "##같다": 5300,
      "##이라고": 5301,
      "아까운": 5302,
      "차라리": 5303,
      "##시간": 5304,
      "oo": 5305,
      "##인듯": 5306,
      "이유": 5307,
      "작가": 5308,
      "어설": 5309,
      "##대체": 5310,
      "절대": 5311,
      "##영화가": 5312,
      "##아니": 5313,
      "않는": 5314,
      "시작": 5315,
      "##치는": 5316,
      "##된다": 5317,
      "나왔": 5318,
      "ㅋㅋㅋㅋ": 5319,
      "##이란": 5320,
      "##기가": 5321,
      "너무나": 5322,
      "왜이": 5323,
      "##만한": 5324,
      "아니고": 5325,
      "보고싶": 5326,
      "로맨": 5327,
      "##st": 5328,
      "훌륭": 5329,
      "##ㅡㅡ": 5330,
      "##난다": 5331,
      "때문에": 5332,
      "년대": 5333,
      "나도": 5334,
      "스토리도": 5335,
      "세상": 5336,
      "##거리": 5337,
      "나와": 5338,
      "##감독": 5339,
      "살아": 5340,
      "영화라고": 5341,
      ",,,": 5342,
      "출연": 5343,
      "##있다": 5344,
      "감정": 5345,
      "남는": 5346,
      "뻔한": 5347,
      "아직도": 5348,
      "도대체": 5349,
      "따뜻": 5350,
      "##마다": 5351,
      "여운이": 5352,
      "##할수": 5353,
      "모르겠": 5354,
      "보게": 5355,
      "그저": 5356,
      "##해도": 5357,
      "##이네": 5358,
      "수작": 5359,
      "의미": 5360,
      "##진다": 5361,
      "##이가": 5362,
      "영화로": 5363,
      "##군요": 5364,
      "##스팅": 5365,
      "싶은": 5366,
      "장난": 5367,
      "보면서": 5368,
      "무엇": 5369,
      "##ㅜㅜ": 5370,
      "느끼": 5371,
      "##에요": 5372,
      "괜찮은": 5373,
      "신선": 5374,
      "어린": 5375,
      "##나고": 5376,
      "##적이고": 5377,
      "##밖에": 5378,
      "##았는데": 5379,
      "얼마": 5380,
      "친구": 5381,
      "##나리오": 5382,
      "재밌어요": 5383,
      "cg": 5384,
      "##로운": 5385,
      "감독의": 5386,
      "마지막에": 5387,
      "강추": 5388,
      "##나요": 5389,
      "##더니": 5390,
      "무섭": 5391,
      "##기를": 5392,
      "만화": 5393,
      "영화입니다": 5394,
      "언제": 5395,
      "##하는데": 5396,
      "##으로도": 5397,
      "시청": 5398,
      "##이야": 5399,
      "싶다": 5400,
      "행복": 5401,
      "주는": 5402,
      "##스러운": 5403,
      "안되": 5404,
      "무서": 5405,
      "##었습니다": 5406,
      "오랜만에": 5407,
      "점수": 5408,
      "답답": 5409,
      "사실": 5410,
      "ooo": 5411,
      "##최고": 5412,
      "초반": 5413,
      "##소리": 5414,
      "##해야": 5415,
      "##고싶": 5416,
      "우리나라": 5417,
      "관객": 5418,
      "허접": 5419,
      "웃음": 5420,
      "멋진": 5421,
      "영화였": 5422,
      "되는": 5423,
      "##영화를": 5424,
      "오늘": 5425,
      "이해가": 5426,
      "엔딩": 5427,
      "##이네요": 5428,
      "##메이션": 5429,
      "추억": 5430,
      "##이지만": 5431,
      "시나리오": 5432,
      "##없음": 5433,
      "##내용": 5434,
      "재미가": 5435,
      "좋았다": 5436,
      "킬링": 5437,
      "전쟁": 5438,
      "##지가": 5439,
      "배경": 5440,
      "부분": 5441,
      "자신": 5442,
      "배우들의": 5443,
      "좋아하는": 5444,
      "보는내내": 5445,
      "없음": 5446,
      "지루함": 5447,
      "개인적으로": 5448,
      "##준다": 5449,
      "tv": 5450,
      "지루하고": 5451,
      "귀여": 5452,
      "안타": 5453,
      "어색": 5454,
      "완벽": 5455,
      "영화관": 5456,
      "소름": 5457,
      "어떤": 5458,
      "좋고": 5459,
      "봤습니다": 5460,
      "##나게": 5461,
      "지루한": 5462,
      "결국": 5463,
      "봤던": 5464,
      "유쾌": 5465,
      "최고다": 5466,
      "다큐": 5467,
      "인상": 5468,
      "슬프": 5469,
      "ㅜㅜ": 5470,
      "##스토리": 5471,
      "생각이": 5472,
      "분위": 5473,
      "이딴": 5474,
      "##것이": 5475,
      "##성도": 5476,
      "시대": 5477,
      "없이": 5478,
      "##부분": 5479,
      "아무리": 5480,
      "힘들": 5481,
      "못한": 5482,
      "진정": 5483,
      "스타": 5484,
      "##디오": 5485,
      "문제": 5486,
      "##치고": 5487,
      "##아깝": 5488,
      "##동안": 5489,
      "##인이": 5490,
      "졸작": 5491,
      "당시": 5492,
      "어릴": 5493,
      "예술": 5494,
      "제발": 5495,
      "진부": 5496,
      "포스터": 5497,
      "##한데": 5498,
      "##구만": 5499,
      "역사": 5500,
      "함께": 5501,
      "들어": 5502,
      "킬링타임": 5503,
      "코믹": 5504,
      ".......": 5505,
      "만들었": 5506,
      "몰입도": 5507,
      "찾아": 5508,
      "있었": 5509,
      "캐스팅": 5510,
      "얼마나": 5511,
      "##한거": 5512,
      "애니메이션": 5513,
      "##럽게": 5514,
      "재밌는": 5515,
      "##리지": 5516,
      "##들에게": 5517,
      "##아까": 5518,
      "후회": 5519,
      "##시길": 5520,
      "##평점": 5521,
      "보세요": 5522,
      "설정": 5523,
      "주연": 5524,
      "##을듯": 5525,
      "???": 5526,
      "아름답": 5527,
      "##구요": 5528,
      "##건가": 5529,
      "점은": 5530,
      "##보니": 5531,
      "연기는": 5532,
      "오래": 5533,
      "영화도": 5534,
      "지루하다": 5535,
      "사람이": 5536,
      "기억에": 5537,
      "개연": 5538,
      "##라이": 5539,
      "공포영화": 5540,
      "##나마": 5541,
      "더빙": 5542,
      "##보단": 5543,
      "보지마": 5544,
      "그렇게": 5545,
      "##정말": 5546,
      "b급": 5547,
      "안되는": 5548,
      "영화라": 5549,
      "여러": 5550,
      "엄마": 5551,
      "돌아": 5552,
      "보지": 5553,
      "어느": 5554,
      "주제": 5555,
      "충격": 5556,
      "##는게": 5557,
      "##레이": 5558,
      "매우": 5559,
      "점이": 5560,
      "점대": 5561,
      "##좋아": 5562,
      "잔인": 5563,
      "지나": 5564,
      "별점": 5565,
      "집중": 5566,
      "##하며": 5567,
      "##있고": 5568,
      "##텐데": 5569,
      "##했음": 5570,
      "옛날": 5571,
      "##주의": 5572,
      "좋아요": 5573,
      "같이": 5574,
      "충분": 5575,
      "극장에서": 5576,
      "##놓고": 5577,
      "한국영화": 5578,
      "미친": 5579,
      "##들과": 5580,
      "##,,": 5581,
      "궁금": 5582,
      "##당히": 5583,
      "##려는": 5584,
      "말도": 5585,
      "순수": 5586,
      "하나도": 5587,
      "##한영화": 5588,
      "빠져": 5589,
      "않았": 5590,
      "##인줄": 5591,
      "##사랑": 5592,
      "##같이": 5593,
      "##감동": 5594,
      "있고": 5595,
      "##이버": 5596,
      "그래서": 5597,
      "불쌍": 5598,
      "##렸다": 5599,
      "감동적이": 5600,
      "따라": 5601,
      "중국": 5602,
      "##자기": 5603,
      "것이": 5604,
      "ㅋㅋㅋㅋㅋ": 5605,
      "여기": 5606,
      "##ㅠㅠㅠㅠ": 5607,
      "##작품": 5608,
      "ost": 5609,
      "봤어요": 5610,
      "프로": 5611,
      "##르는": 5612,
      "##웠다": 5613,
      "내용은": 5614,
      "##마디": 5615,
      "모르겠다": 5616,
      "하지": 5617,
      "느낌이": 5618,
      "나올": 5619,
      "뛰어": 5620,
      "감사": 5621,
      "약간": 5622,
      "마음이": 5623,
      "대체": 5624,
      "한다": 5625,
      "##것같": 5626,
      "여주인공": 5627,
      "위해": 5628,
      "누가": 5629,
      "엉성": 5630,
      "##수있": 5631,
      "그만": 5632,
      "후반": 5633,
      "그나마": 5634,
      "##야지": 5635,
      "##길래": 5636,
      "상상": 5637,
      "##만든": 5638,
      "##쓰레기": 5639,
      "재밌음": 5640,
      "영화네요": 5641,
      "이정도": 5642,
      "존나": 5643,
      "##함을": 5644,
      "ㅉㅉ": 5645,
      "##거지": 5646,
      "실화": 5647,
      "알고": 5648,
      "영화중": 5649,
      "감동도": 5650,
      "영상미": 5651,
      "위한": 5652,
      "##해지는": 5653,
      "이름": 5654,
      "가슴이": 5655,
      "로맨스": 5656,
      "##버린": 5657,
      "##가지": 5658,
      "##ㄷㄷ": 5659,
      "않는다": 5660,
      "##기만": 5661,
      "눈물이": 5662,
      "걸작": 5663,
      "얼굴": 5664,
      "이쁘": 5665,
      "##성을": 5666,
      "##워서": 5667,
      "##이라도": 5668,
      "노잼": 5669,
      "비슷": 5670,
      "갈수록": 5671,
      "##하시": 5672,
      "##봤다": 5673,
      "다음": 5674,
      "훨씬": 5675,
      "##력이": 5676,
      "사람들": 5677,
      "전체": 5678,
      "##했지만": 5679,
      "재미없음": 5680,
      "이것": 5681,
      "##자가": 5682,
      "네이버": 5683,
      "연기를": 5684,
      "있을": 5685,
      "##이었다": 5686,
      "##으니": 5687,
      "##ood": 5688,
      "발연기": 5689,
      "##이야기": 5690,
      "시즌": 5691,
      "##듯한": 5692,
      "다들": 5693,
      "장르": 5694,
      "##리를": 5695,
      "##느낌": 5696,
      "비교": 5697,
      "##말이": 5698,
      "단순": 5699,
      "오글": 5700,
      "티비": 5701,
      "없었다": 5702,
      "##겠지만": 5703,
      "어렸": 5704,
      "##가서": 5705,
      "##자체": 5706,
      "결말이": 5707,
      "밖에": 5708,
      "##함이": 5709,
      "비디오": 5710,
      "초딩": 5711,
      "한마디": 5712,
      "어설픈": 5713,
      "간만에": 5714,
      "##등학": 5715,
      "......": 5716,
      "알았": 5717,
      "##린다": 5718,
      "굉장": 5719,
      "이미": 5720,
      "##타지": 5721,
      "재밌고": 5722,
      "기억이": 5723,
      "없어": 5724,
      "##!!!!!!!!": 5725,
      "##겠지": 5726,
      "성룡": 5727,
      "##전개": 5728,
      "사람들이": 5729,
      "인물": 5730,
      "##라서": 5731,
      "##재밋": 5732,
      "감동이": 5733,
      "것도": 5734,
      "##시절": 5735,
      "귀엽": 5736,
      "##스럽다": 5737,
      "느낄": 5738,
      "##지지": 5739,
      "여배우": 5740,
      "잘봤": 5741,
      "보여주는": 5742,
      "영화관에서": 5743,
      "알게": 5744,
      "##er": 5745,
      "##대한": 5746,
      "##것을": 5747,
      "##시키": 5748,
      "##이라면": 5749,
      "킬링타임용": 5750,
      "교훈": 5751,
      "##보게": 5752,
      "상황": 5753,
      "##나온": 5754,
      "배우들이": 5755,
      "good": 5756,
      "##노잼": 5757,
      "아쉽다": 5758,
      "화려": 5759,
      "##거나": 5760,
      "잔잔한": 5761,
      "것을": 5762,
      "##으면서": 5763,
      "쓰레기영화": 5764,
      "마이": 5765,
      "애들": 5766,
      "등장": 5767,
      "사회": 5768,
      "이후": 5769,
      "진정한": 5770,
      "##정이": 5771,
      "##스가": 5772,
      "스토리는": 5773,
      "주고": 5774,
      "##려서": 5775,
      "아님": 5776,
      "##말고": 5777,
      "감동적인": 5778,
      "바로": 5779,
      "존재": 5780,
      "##적이다": 5781,
      "삼류": 5782,
      "##라면": 5783,
      "##보기": 5784,
      "##버지": 5785,
      "좋은데": 5786,
      "독특": 5787,
      "좋겠": 5788,
      "##수준": 5789,
      "다운": 5790,
      "맘에": 5791,
      "##머니": 5792,
      "당신": 5793,
      "##해라": 5794,
      "했는데": 5795,
      "##었고": 5796,
      "##짜리": 5797,
      "생각보다": 5798,
      "영화였다": 5799,
      "재미는": 5800,
      "생각을": 5801,
      "그리": 5802,
      "전부": 5803,
      "평가": 5804,
      "##거같": 5805,
      "##론가": 5806,
      "...........": 5807,
      "잘못": 5808,
      "##거야": 5809,
      "두번": 5810,
      "##재미있": 5811,
      "거의": 5812,
      "##필요": 5813,
      "같아요": 5814,
      "##되고": 5815,
      "##건데": 5816,
      "상당히": 5817,
      "있을까": 5818,
      "##연히": 5819,
      "각본": 5820,
      "보니": 5821,
      "소설": 5822,
      "허무": 5823,
      "중간에": 5824,
      "뭐지": 5825,
      "##한번": 5826,
      "##인의": 5827,
      "##인생": 5828,
      "않다": 5829,
      "영화임": 5830,
      "##보고싶": 5831,
      "그러나": 5832,
      "대해": 5833,
      "##이팅": 5834,
      "##주세요": 5835,
      "##았던": 5836,
      "뭐야": 5837,
      "세계": 5838,
      "ㅋㅋㅋㅋㅋㅋㅋㅋㅋ": 5839,
      "높은": 5840,
      "예상": 5841,
      "이번": 5842,
      "##들어": 5843,
      "##할때": 5844,
      "##워요": 5845,
      "감동을": 5846,
      "sf": 5847,
      "그대로": 5848,
      "어른": 5849,
      "어울": 5850,
      "##하하": 5851,
      "##감이": 5852,
      "정도로": 5853,
      "실제": 5854,
      "몇번": 5855,
      "자연": 5856,
      "##지루": 5857,
      "영화인데": 5858,
      "##잖아": 5859,
      "재미있는": 5860,
      "##아깝다": 5861,
      "나의": 5862,
      "다르": 5863,
      "자기": 5864,
      "##수를": 5865,
      "##정도로": 5866,
      "같은데": 5867,
      "나이": 5868,
      "하다": 5869,
      "해서": 5870,
      "##아닌": 5871,
      "##본다": 5872,
      "##좋은": 5873,
      "##영화의": 5874,
      "이영화를": 5875,
      "빨리": 5876,
      "에로": 5877,
      "점을": 5878,
      "##을텐데": 5879,
      "##영화다": 5880,
      "재미있어요": 5881,
      "나와서": 5882,
      "구성": 5883,
      "여주": 5884,
      "멜로": 5885,
      "제가": 5886,
      "##모르": 5887,
      "##액션": 5888,
      "##나오는": 5889,
      "준다": 5890,
      "혼자": 5891,
      "##하냐": 5892,
      "##낭비": 5893,
      "기다": 5894,
      "재미있다": 5895,
      "멋있": 5896,
      "재밌네요": 5897,
      "갑자기": 5898,
      "있지만": 5899,
      "좀비": 5900,
      "##하자": 5901,
      "어쩌": 5902,
      "##스타": 5903,
      "##분들": 5904,
      "##간다": 5905,
      "##에서도": 5906,
      "감독님": 5907,
      "그녀": 5908,
      "봐서": 5909,
      "저런": 5910,
      "##리의": 5911,
      "방송": 5912,
      "##졌다": 5913,
      "원작을": 5914,
      "머리": 5915,
      "봤지만": 5916,
      "##개도": 5917,
      "평점을": 5918,
      "어디서": 5919,
      "볼수": 5920,
      "슬픈": 5921,
      "질질": 5922,
      "평범": 5923,
      "굉장히": 5924,
      "일단": 5925,
      "##어나": 5926,
      "##보다는": 5927,
      "##어가": 5928,
      "##여서": 5929,
      "시청률": 5930,
      "라는": 5931,
      "새로운": 5932,
      "##을수": 5933,
      "##저히": 5934,
      "마음에": 5935,
      "년도": 5936,
      "크리스": 5937,
      "##였음": 5938,
      "판타지": 5939,
      "##었지만": 5940,
      "##때마다": 5941,
      "개그": 5942,
      "낮은": 5943,
      "더욱": 5944,
      "저는": 5945,
      "##아야": 5946,
      "##라니": 5947,
      "##...": 5948,
      "장면이": 5949,
      "뭐냐": 5950,
      "상영": 5951,
      "즐거": 5952,
      "케이": 5953,
      "프랑": 5954,
      "확실": 5955,
      "누구": 5956,
      "##다른": 5957,
      "이런영화": 5958,
      "##다는게": 5959,
      "뭐가": 5960,
      "화면": 5961,
      "##예요": 5962,
      "극장판": 5963,
      "있어서": 5964,
      "##시다": 5965,
      "##지를": 5966,
      "재미없는": 5967,
      "만점": 5968,
      "예쁘": 5969,
      "의도": 5970,
      "##고는": 5971,
      "평론가": 5972,
      "##에선": 5973,
      "##어지는": 5974,
      "볼만한": 5975,
      "훌륭한": 5976,
      "살인": 5977,
      "끝나": 5978,
      "믿고": 5979,
      "##에서는": 5980,
      "##사가": 5981,
      "항상": 5982,
      "흥행": 5983,
      "못하는": 5984,
      "불편": 5985,
      "역대": 5986,
      "예고": 5987,
      "전형": 5988,
      "##았음": 5989,
      "##던가": 5990,
      "봐라": 5991,
      "성우": 5992,
      "너무너무": 5993,
      "생각하게": 5994,
      "가치": 5995,
      "있어": 5996,
      "점점": 5997,
      "##인다": 5998,
      "##아이": 5999,
      "##시대": 6000,
      "처음부터": 6001,
      "주인공이": 6002,
      "##스럽고": 6003,
      "멋지": 6004,
      "##일이": 6005,
      "물론": 6006,
      "중요": 6007,
      "탄탄": 6008,
      "한심": 6009,
      "##에겐": 6010,
      "##우드": 6011,
      "자체가": 6012,
      "프랑스": 6013,
      "꿀잼": 6014,
      "##하니": 6015,
      "충분히": 6016,
      "헐리": 6017,
      "##유의": 6018,
      "##와서": 6019,
      "가지고": 6020,
      "봤음": 6021,
      "안타깝": 6022,
      "감성": 6023,
      "##리티": 6024,
      "##도록": 6025,
      "관람": 6026,
      "만드": 6027,
      "##중간": 6028,
      "영화보다": 6029,
      "한마디로": 6030,
      "있는데": 6031,
      "있었다": 6032,
      "아닐": 6033,
      "사람은": 6034,
      "없어서": 6035,
      "##진진": 6036,
      "##봐서": 6037,
      "좋은영화": 6038,
      "개연성": 6039,
      "그때": 6040,
      "비해": 6041,
      "##했어요": 6042,
      "##땜에": 6043,
      "##조건": 6044,
      "그런지": 6045,
      "보여주": 6046,
      "댓글": 6047,
      "참고": 6048,
      "한편": 6049,
      "했다": 6050,
      "아까움": 6051,
      "대단한": 6052,
      "편집": 6053,
      "해도": 6054,
      "홍콩": 6055,
      "##속에": 6056,
      "##들아": 6057,
      "생각해": 6058,
      "순간": 6059,
      "##러운": 6060,
      "감독은": 6061,
      "##하지않": 6062,
      "ㅎㅎㅎ": 6063,
      "식상": 6064,
      "진행": 6065,
      "황당": 6066,
      "##립니다": 6067,
      "##메디": 6068,
      "사이": 6069,
      "잘만들": 6070,
      "##그런": 6071,
      "그게": 6072,
      "돋보": 6073,
      "리얼": 6074,
      "훈훈": 6075,
      "##하지도": 6076,
      "이영화는": 6077,
      "것은": 6078,
      "어려": 6079,
      "합니다": 6080,
      "하게": 6081,
      "##거다": 6082,
      "분위기": 6083,
      "과거": 6084,
      "도저히": 6085,
      "좋네요": 6086,
      "##기고": 6087,
      "평점은": 6088,
      "만족": 6089,
      "소리": 6090,
      "자극": 6091,
      "불륜": 6092,
      "어쩔": 6093,
      "참신": 6094,
      "안타까": 6095,
      "더럽게": 6096,
      "돈주고": 6097,
      "##으며": 6098,
      "##보면서": 6099,
      "##조차": 6100,
      "##이라니": 6101,
      "그닥": 6102,
      "먹먹": 6103,
      "미안": 6104,
      "몰랐": 6105,
      "시절": 6106,
      "엉망": 6107,
      "원래": 6108,
      "카메": 6109,
      "소중": 6110,
      "이것도": 6111,
      "줄거리": 6112,
      "##없어": 6113,
      "다시봐도": 6114,
      "전개가": 6115,
      "망작": 6116,
      "무조건": 6117,
      "아닌가": 6118,
      "보는데": 6119,
      "수가": 6120,
      "유명": 6121,
      "##만으로도": 6122,
      "##가고": 6123,
      "##자의": 6124,
      "##했고": 6125,
      "##히려": 6126,
      "재밌는데": 6127,
      "지금까지": 6128,
      "어릴때": 6129,
      "보았": 6130,
      "##스의": 6131,
      "##????": 6132,
      "흥미진진": 6133,
      "##아도": 6134,
      "끝내": 6135,
      "범죄": 6136,
      "여전": 6137,
      "##저씨": 6138,
      "##되어": 6139,
      "##영화중": 6140,
      "th": 6141,
      "년이": 6142,
      "선택": 6143,
      "##만의": 6144,
      "##것같다": 6145,
      "엄청난": 6146,
      "##한게": 6147,
      "아쉬운": 6148,
      "##리게": 6149,
      "##봐야": 6150,
      "재밌었다": 6151,
      "가는": 6152,
      "오히려": 6153,
      "##이냐": 6154,
      "##기대": 6155,
      "##일까": 6156,
      "##코미디": 6157,
      "##했습니다": 6158,
      "괜히": 6159,
      "돈이": 6160,
      "멍청": 6161,
      "아빠": 6162,
      "죽음": 6163,
      "액션도": 6164,
      "결혼": 6165,
      "얘기": 6166,
      "진지": 6167,
      "사랑을": 6168,
      "모르고": 6169,
      "최근": 6170,
      "##었으면": 6171,
      "##민국": 6172,
      "배우가": 6173,
      "그림": 6174,
      "분명": 6175,
      "안나": 6176,
      "이리": 6177,
      "편은": 6178,
      "##하긴": 6179,
      "##사회": 6180,
      "사람들은": 6181,
      "그래픽": 6182,
      "후반부": 6183,
      "없네": 6184,
      "평점에": 6185,
      "귀신": 6186,
      "자꾸": 6187,
      "희망": 6188,
      "##파이": 6189,
      "비추": 6190,
      "안보": 6191,
      "학교": 6192,
      "##여자": 6193,
      "인간의": 6194,
      "독립": 6195,
      "설명": 6196,
      "아버지": 6197,
      "전설": 6198,
      "좋겠다": 6199,
      "내인생": 6200,
      "봤네요": 6201,
      "예전에": 6202,
      "있음": 6203,
      "저질": 6204,
      "##이면": 6205,
      "영화인": 6206,
      "##하는거": 6207,
      "ㅠㅠㅠ": 6208,
      "병맛": 6209,
      "이러": 6210,
      "전편": 6211,
      "##시는": 6212,
      "##하다고": 6213,
      "오글거": 6214,
      "예고편": 6215,
      "전형적인": 6216,
      "가능": 6217,
      "해야": 6218,
      "힘든": 6219,
      "##없네": 6220,
      "##은데": 6221,
      "##겠네": 6222,
      "##그래": 6223,
      "지루해": 6224,
      "유치한": 6225,
      "로맨틱": 6226,
      "감상": 6227,
      "웃긴": 6228,
      "##bs": 6229,
      "따뜻한": 6230,
      "복수": 6231,
      "##지마라": 6232,
      "무서운": 6233,
      "가볍": 6234,
      "별루": 6235,
      "사라": 6236,
      "앞으로": 6237,
      "현재": 6238,
      "##in": 6239,
      "##만이": 6240,
      "##어로": 6241,
      "##스런": 6242,
      "지금도": 6243,
      "억지로": 6244,
      "나쁜": 6245,
      "입니다": 6246,
      "화이팅": 6247,
      "##이트": 6248,
      "##그램": 6249,
      "미화": 6250,
      "알려": 6251,
      "있다는": 6252,
      "##하여": 6253,
      "##엔딩": 6254,
      "대한민국": 6255,
      "완벽한": 6256,
      "그럴": 6257,
      "바보": 6258,
      "초등학": 6259,
      "##이런": 6260,
      "연출력": 6261,
      "그런데": 6262,
      "아무것도": 6263,
      "느꼈": 6264,
      "영웅": 6265,
      "완성도": 6266,
      "##시리즈": 6267,
      "없네요": 6268,
      "##인물": 6269,
      "##내는": 6270,
      "된다": 6271,
      "저도": 6272,
      "##시고": 6273,
      "나쁘": 6274,
      "##보세요": 6275,
      "##친구": 6276,
      "느끼게": 6277,
      "동화": 6278,
      "전문": 6279,
      "좋음": 6280,
      "##내고": 6281,
      "##따위": 6282,
      "이야기를": 6283,
      "대작": 6284,
      "하면": 6285,
      "이런거": 6286,
      "재미없어": 6287,
      "기대하고": 6288,
      "아이들이": 6289,
      "듯한": 6290,
      "바라": 6291,
      "바람": 6292,
      "영원": 6293,
      "우연히": 6294,
      "인정": 6295,
      "중반": 6296,
      "진실": 6297,
      "이런걸": 6298,
      "년전": 6299,
      "메세": 6300,
      "잊혀": 6301,
      "##영화로": 6302,
      "##하는게": 6303,
      "스타일": 6304,
      "신기": 6305,
      "죽는": 6306,
      "##나면": 6307,
      "##지게": 6308,
      "##현실": 6309,
      "좋았어요": 6310,
      "연출이": 6311,
      "다운받": 6312,
      "되어": 6313,
      "서로": 6314,
      "요소": 6315,
      "##움이": 6316,
      "##님의": 6317,
      "다행": 6318,
      "말고": 6319,
      "적당": 6320,
      "전작": 6321,
      "천재": 6322,
      "청춘": 6323,
      "촬영": 6324,
      "허술": 6325,
      "흘러": 6326,
      "##오는": 6327,
      "##봐라": 6328,
      "처음으로": 6329,
      "모르는": 6330,
      "어설프": 6331,
      "것이다": 6332,
      "전기": 6333,
      "##이거": 6334,
      "재밌어": 6335,
      "부모": 6336,
      "알았다": 6337,
      "이래": 6338,
      "##함과": 6339,
      "관계": 6340,
      "노력": 6341,
      "유머": 6342,
      "##한듯": 6343,
      "##스를": 6344,
      "##메이크": 6345,
      "아오": 6346,
      "이연": 6347,
      "코메디": 6348,
      "##것은": 6349,
      "##방송": 6350,
      "마무": 6351,
      "목소리": 6352,
      "안된다": 6353,
      "특유의": 6354,
      "편이": 6355,
      "풀어": 6356,
      "##이하": 6357,
      "##장이": 6358,
      "##심이": 6359,
      "##평가": 6360,
      "##웠던": 6361,
      "재미있고": 6362,
      "나라": 6363,
      "못보": 6364,
      "우울": 6365,
      "##네여": 6366,
      "##상을": 6367,
      "##우는": 6368,
      "##예산": 6369,
      "##랄까": 6370,
      "시간낭비": 6371,
      "그의": 6372,
      "##심을": 6373,
      "##였는데": 6374,
      "낫다": 6375,
      "아마": 6376,
      "##당시": 6377,
      "##안되는": 6378,
      "영화에서": 6379,
      "##같은데": 6380,
      "놀라": 6381,
      "아프": 6382,
      "웃겨": 6383,
      "즐겁": 6384,
      "##리다": 6385,
      "왜이리": 6386,
      "뭔지": 6387,
      "속편": 6388,
      "없을": 6389,
      "여성": 6390,
      "##리아": 6391,
      "##더군요": 6392,
      "##기엔": 6393,
      "##드가": 6394,
      "##그냥": 6395,
      "##ㅇㅇ": 6396,
      "##님이": 6397,
      "만들었다": 6398,
      "어렸을때": 6399,
      "알았는데": 6400,
      "졸라": 6401,
      "재미없고": 6402,
      "노출": 6403,
      "또한": 6404,
      "리메이크": 6405,
      "만큼": 6406,
      "왠지": 6407,
      "##짜증": 6408,
      "유치하고": 6409,
      "그럼": 6410,
      "사건": 6411,
      "싫어": 6412,
      "지난": 6413,
      "##점이": 6414,
      "##안하고": 6415,
      "최악이다": 6416,
      "나만": 6417,
      "마치": 6418,
      "조연": 6419,
      "철학": 6420,
      "##어울": 6421,
      "##자들": 6422,
      "비슷한": 6423,
      "성장": 6424,
      "해피": 6425,
      "##아먹": 6426,
      "##것이다": 6427,
      "##다시": 6428,
      "##있게": 6429,
      "명작이다": 6430,
      "장면은": 6431,
      "이상한": 6432,
      "ooo기": 6433,
      "거지": 6434,
      "나머": 6435,
      "누군": 6436,
      "말하고": 6437,
      "예전": 6438,
      "이젠": 6439,
      "##한다는": 6440,
      "##줄알": 6441,
      "##어진": 6442,
      "##스로": 6443,
      "##였습니다": 6444,
      "만들지": 6445,
      "화려한": 6446,
      "게임": 6447,
      "정치": 6448,
      "##대의": 6449,
      "무엇보다": 6450,
      "진부한": 6451,
      "않음": 6452,
      "어찌": 6453,
      "짱짱": 6454,
      "##하겠": 6455,
      "##보는데": 6456,
      "경찰": 6457,
      "그려": 6458,
      "뜬금": 6459,
      "중에": 6460,
      "보고나서": 6461,
      "부족한": 6462,
      "귀여운": 6463,
      "##세가": 6464,
      "##그라": 6465,
      "여자가": 6466,
      "##소한": 6467,
      "##식이": 6468,
      "작품이": 6469,
      "반전이": 6470,
      "잘봤습니다": 6471,
      "다만": 6472,
      "대충": 6473,
      "돌려": 6474,
      "##음악": 6475,
      "##보이": 6476,
      "##애니": 6477,
      "감동적": 6478,
      "드라마를": 6479,
      "아니지만": 6480,
      "소재는": 6481,
      "모습이": 6482,
      "전체적으로": 6483,
      "가득": 6484,
      "미래": 6485,
      "하는데": 6486,
      "##정을": 6487,
      "##르고": 6488,
      "##치게": 6489,
      "마음을": 6490,
      "스케": 6491,
      "않았다": 6492,
      "##려면": 6493,
      "##자는": 6494,
      "##든다": 6495,
      "스토리에": 6496,
      "보여준": 6497,
      "대단하다": 6498,
      "그렇고": 6499,
      "##아니고": 6500,
      "밑에": 6501,
      "손발": 6502,
      "않을": 6503,
      "##자를": 6504,
      "재밌었어요": 6505,
      "아닐까": 6506,
      "아는": 6507,
      "##리도": 6508,
      "##리에": 6509,
      "##막장": 6510,
      "##과는": 6511,
      "##싶다": 6512,
      "드라마가": 6513,
      "아니면": 6514,
      "좋았습니다": 6515,
      "지금봐도": 6516,
      "너무나도": 6517,
      "눈이": 6518,
      "전달": 6519,
      "행동": 6520,
      "##처음": 6521,
      "이런게": 6522,
      "##하면서도": 6523,
      "ㅅㅂ": 6524,
      "나에게": 6525,
      "안맞": 6526,
      "애들이": 6527,
      "어렵": 6528,
      "##한건": 6529,
      "##신이": 6530,
      "##별로": 6531,
      "##놓은": 6532,
      "생각한다": 6533,
      "좋았고": 6534,
      "케이블": 6535,
      "남아": 6536,
      "라고": 6537,
      "먼저": 6538,
      "성공": 6539,
      "점준": 6540,
      "##인은": 6541,
      "##인거": 6542,
      "##가요": 6543,
      "##걸까": 6544,
      "##프로": 6545,
      "별로다": 6546,
      "감사합니다": 6547,
      "못하고": 6548,
      "환상": 6549,
      "##vd": 6550,
      "##있는데": 6551,
      "##지못": 6552,
      "##새끼": 6553,
      "##많은": 6554,
      "..?": 6555,
      "##면서도": 6556,
      "제작비": 6557,
      "남주": 6558,
      "러브": 6559,
      "메시": 6560,
      "삶을": 6561,
      "안나오": 6562,
      "이어": 6563,
      "자유": 6564,
      "잘생": 6565,
      "##하던": 6566,
      "역시나": 6567,
      "이야기가": 6568,
      "이영화가": 6569,
      "짜증나": 6570,
      "영화였습니다": 6571,
      "같습니다": 6572,
      "심심": 6573,
      "##져서": 6574,
      "다소": 6575,
      "본다": 6576,
      "피해": 6577,
      "한계": 6578,
      "##이코": 6579,
      "##소년": 6580,
      "##수도": 6581,
      "##수있는": 6582,
      "##감을": 6583,
      "##ㅋㅋㅋㅋㅋㅋㅋㅋㅋㅋㅋㅋㅋㅋㅋㅋ": 6584,
      "ㄷㄷ": 6585,
      "알겠": 6586,
      "##or": 6587,
      "##해주": 6588,
      "##심히": 6589,
      "##명작": 6590,
      "##하는지": 6591,
      "자신의": 6592,
      "군대": 6593,
      "그랬": 6594,
      "##만하면": 6595,
      "##었네요": 6596,
      "##좋고": 6597,
      "어이없는": 6598,
      "중간중간": 6599,
      "허접한": 6600,
      "인상깊": 6601,
      "확실히": 6602,
      "글쎄": 6603,
      "깊은": 6604,
      "시도": 6605,
      "잘만든": 6606,
      "저예산": 6607,
      "하루": 6608,
      "화가": 6609,
      "##화가": 6610,
      "##해주는": 6611,
      "##였던": 6612,
      "##봤어요": 6613,
      "나온다": 6614,
      "세상에": 6615,
      "나를": 6616,
      "눈을": 6617,
      "아놔": 6618,
      "외국": 6619,
      "##마저": 6620,
      "##모습": 6621,
      "##완전": 6622,
      "##나온다": 6623,
      "가끔": 6624,
      "결론": 6625,
      "심리": 6626,
      "영화중에": 6627,
      "매력적인": 6628,
      "##고싶다": 6629,
      "카메라": 6630,
      "연애": 6631,
      "했지만": 6632,
      "##인을": 6633,
      "##스는": 6634,
      "##대박": 6635,
      "영화보고": 6636,
      "내용을": 6637,
      "감정이": 6638,
      "dvd": 6639,
      "거기": 6640,
      "와닿": 6641,
      "있었던": 6642,
      "젊은": 6643,
      "##세계": 6644,
      "##났다": 6645,
      "##영화에": 6646,
      "어색한": 6647,
      "취향": 6648,
      "##로는": 6649,
      "##내요": 6650,
      "##닝타임": 6651,
      "##많이": 6652,
      "액션은": 6653,
      "그런가": 6654,
      "모습을": 6655,
      "보지마세요": 6656,
      "같네요": 6657,
      "낭비": 6658,
      "알아": 6659,
      "##실망": 6660,
      "##사는": 6661,
      "##했으면": 6662,
      "##순간": 6663,
      "스토리와": 6664,
      "좋았음": 6665,
      "좋았는데": 6666,
      "제작진": 6667,
      "어린이": 6668,
      "겁나": 6669,
      "볼때마다": 6670,
      "의외": 6671,
      "##는가": 6672,
      "##이에요": 6673,
      "##려다": 6674,
      "영화이다": 6675,
      "##지도않": 6676,
      "왜이렇게": 6677,
      "프로그램": 6678,
      "고민": 6679,
      "미소": 6680,
      "보이는": 6681,
      "슈퍼": 6682,
      "했던": 6683,
      "##지컬": 6684,
      "##들만": 6685,
      "##스럽게": 6686,
      "순수한": 6687,
      "년에": 6688,
      "아저씨": 6689,
      "평생": 6690,
      "영화지만": 6691,
      "사람을": 6692,
      "감탄": 6693,
      "굿굿": 6694,
      "기본": 6695,
      "특별": 6696,
      "호러": 6697,
      "##로서": 6698,
      "##일뿐": 6699,
      "##겟다": 6700,
      "##절한": 6701,
      "##,.": 6702,
      "이건뭐": 6703,
      "어이가": 6704,
      "부분이": 6705,
      "내생": 6706,
      "느낀": 6707,
      "실패": 6708,
      "조폭": 6709,
      "##만으로": 6710,
      "##성애": 6711,
      "##분에": 6712,
      "##최악": 6713,
      "연기에": 6714,
      "##보다가": 6715,
      "##사람이": 6716,
      "##하기만": 6717,
      "넘어": 6718,
      "다가": 6719,
      "오락": 6720,
      "이하": 6721,
      "찍은": 6722,
      "해준": 6723,
      "해주는": 6724,
      "##이건": 6725,
      "##더만": 6726,
      "느껴지는": 6727,
      "여전히": 6728,
      "미스": 6729,
      "블랙": 6730,
      "##어라": 6731,
      "##터리": 6732,
      "##할듯": 6733,
      "드라마는": 6734,
      "사랑이": 6735,
      "떨어지는": 6736,
      "더이상": 6737,
      "역할": 6738,
      "유일": 6739,
      "이기": 6740,
      "##아아": 6741,
      "##었나": 6742,
      "##시켜": 6743,
      "액션이": 6744,
      "나오고": 6745,
      "##지않는": 6746,
      "슬픔": 6747,
      "##래기": 6748,
      "##저럭": 6749,
      "##개봉": 6750,
      "스토리를": 6751,
      "처음이다": 6752,
      "아닌데": 6753,
      "까지": 6754,
      "끝나고": 6755,
      "리뷰": 6756,
      "부터": 6757,
      "사극": 6758,
      "살짝": 6759,
      "섹시": 6760,
      "##되지": 6761,
      "보는게": 6762,
      "이유가": 6763,
      "유쾌한": 6764,
      "독특한": 6765,
      "평범한": 6766,
      "과연": 6767,
      "그들의": 6768,
      "든다": 6769,
      "모자": 6770,
      "악역": 6771,
      "저렇게": 6772,
      "전에": 6773,
      "##만드는": 6774,
      "##이의": 6775,
      "##이게": 6776,
      "##구려": 6777,
      "##ou": 6778,
      "재미있음": 6779,
      "##사람들": 6780,
      "소재를": 6781,
      "음악이": 6782,
      "있다면": 6783,
      "소름끼": 6784,
      "난다": 6785,
      "마라": 6786,
      "스트": 6787,
      "혹시": 6788,
      "##하세요": 6789,
      "##없어서": 6790,
      "##다지": 6791,
      "##으론": 6792,
      "##영상": 6793,
      "##와르": 6794,
      "##움을": 6795,
      "##말로": 6796,
      "##럽다": 6797,
      "사랑하는": 6798,
      "기대를": 6799,
      "매력이": 6800,
      "연기력이": 6801,
      "슬프다": 6802,
      "괴물": 6803,
      "그걸": 6804,
      "나서": 6805,
      "라이": 6806,
      "맞는": 6807,
      "봤었는데": 6808,
      "시선": 6809,
      "예쁜": 6810,
      "종교": 6811,
      "##추천": 6812,
      "정말로": 6813,
      "감동적이고": 6814,
      "##재밌게": 6815,
      "귀엽고": 6816,
      "굳이": 6817,
      "깔끔": 6818,
      "분노": 6819,
      "안하고": 6820,
      "연예": 6821,
      "##그러": 6822,
      "아름답고": 6823,
      "이연걸": 6824,
      "가진": 6825,
      "난해": 6826,
      "점짜리": 6827,
      "##었어": 6828,
      "##해보": 6829,
      "##럭저럭": 6830,
      "##위해": 6831,
      "##하다는": 6832,
      "주인공의": 6833,
      "추천합니다": 6834,
      "고전": 6835,
      "시원": 6836,
      "##했을": 6837,
      "사랑에": 6838,
      "몰입이": 6839,
      "흥미롭": 6840,
      "안되고": 6841,
      "막판": 6842,
      "뮤지컬": 6843,
      "점준다": 6844,
      "##하려는": 6845,
      "##니아": 6846,
      "##먹고": 6847,
      "연기와": 6848,
      "처음엔": 6849,
      "다큐멘": 6850,
      "동물": 6851,
      "용서": 6852,
      "일어": 6853,
      "해주": 6854,
      "희생": 6855,
      "##나올": 6856,
      "##었네": 6857,
      "##레스": 6858,
      "##기억": 6859,
      "##트가": 6860,
      "재밌었는데": 6861,
      "시간을": 6862,
      "사랑과": 6863,
      "보기엔": 6864,
      "음악도": 6865,
      "어릴적": 6866,
      "드는": 6867,
      "에휴": 6868,
      "표절": 6869,
      "후속": 6870,
      "##식으로": 6871,
      "##좋다": 6872,
      "##씨가": 6873,
      "##이라서": 6874,
      "##더라도": 6875,
      "##최고의": 6876,
      "이정도면": 6877,
      "the": 6878,
      "그럭저럭": 6879,
      "남는다": 6880,
      "사기": 6881,
      "안됨": 6882,
      "통해": 6883,
      "##었을": 6884,
      "##있네": 6885,
      "##공포": 6886,
      "##학교": 6887,
      "##하지마": 6888,
      "우리가": 6889,
      "##한다면": 6890,
      "짜증나는": 6891,
      "아름답다": 6892,
      "어렸을": 6893,
      "무지": 6894,
      "봤다가": 6895,
      "불쾌": 6896,
      "소녀": 6897,
      "열심히": 6898,
      "올라": 6899,
      "자막": 6900,
      "현대": 6901,
      "##아라": 6902,
      "##시아": 6903,
      "##지네요": 6904,
      "##들고": 6905,
      "##점을": 6906,
      "##남자": 6907,
      "##거냐": 6908,
      "##끼리": 6909,
      "##싶은": 6910,
      "##즈니": 6911,
      "말이필요": 6912,
      "레이": 6913,
      "어제": 6914,
      "일상": 6915,
      "##도없고": 6916,
      "##버렸다": 6917,
      "##웃음": 6918,
      "작품성": 6919,
      "##더라구요": 6920,
      "진심으로": 6921,
      "기분이": 6922,
      "상처": 6923,
      "쓸데": 6924,
      "아침": 6925,
      "압권": 6926,
      "##an": 6927,
      "##디어": 6928,
      "재미를": 6929,
      "하나하나": 6930,
      "????": 6931,
      "잼있게": 6932,
      "나왔으면": 6933,
      "티비에서": 6934,
      "같음": 6935,
      "나타": 6936,
      "말로": 6937,
      "보시": 6938,
      "싸이코": 6939,
      "포장": 6940,
      "##듯이": 6941,
      "##주얼": 6942,
      "##사를": 6943,
      "##았어요": 6944,
      "##았습니다": 6945,
      "감동과": 6946,
      "재미없네": 6947,
      "아닌듯": 6948,
      "현실을": 6949,
      "신선한": 6950,
      "추억의": 6951,
      "되었다": 6952,
      "무협": 6953,
      "북한": 6954,
      "재난": 6955,
      "좋을": 6956,
      "##인간": 6957,
      "##였어요": 6958,
      "##학생": 6959,
      "생각합니다": 6960,
      "공감이": 6961,
      "전기세가": 6962,
      ",.": 6963,
      "몸매": 6964,
      "보시길": 6965,
      "##한것": 6966,
      "##구하고": 6967,
      "##서야": 6968,
      "##화를": 6969,
      "##같음": 6970,
      "##른다": 6971,
      "##알바": 6972,
      "영화냐": 6973,
      "재밌습니다": 6974,
      "개판": 6975,
      "그지": 6976,
      "오그라": 6977,
      "포기": 6978,
      "폭력": 6979,
      "형편": 6980,
      "흐름": 6981,
      "##이크": 6982,
      "##무서": 6983,
      "##무비": 6984,
      "##장에서": 6985,
      "##으로서": 6986,
      "지루해서": 6987,
      "배우의": 6988,
      "만들어진": 6989,
      "이유는": 6990,
      "그다지": 6991,
      "깊이": 6992,
      "나중에": 6993,
      "남녀": 6994,
      "놀랍": 6995,
      "떠나": 6996,
      "미치": 6997,
      "소장": 6998,
      "올해": 6999,
      "퀄리티": 7000,
      "하면서": 7001,
      "##이터": 7002,
      "##있음": 7003,
      "##들에": 7004,
      "##안되": 7005,
      "##티비": 7006,
      "아까워": 7007,
      "그렇다": 7008,
      "등장인물": 7009,
      "몇번을": 7010,
      "고생": 7011,
      "보이": 7012,
      "본방": 7013,
      "영환": 7014,
      "채널": 7015,
      "크게": 7016,
      "힐링": 7017,
      "##있어요": 7018,
      "##까진": 7019,
      "##따라": 7020,
      "볼만함": 7021,
      "##지않은": 7022,
      "재밋게": 7023,
      "해피엔딩": 7024,
      "감명": 7025,
      "동생": 7026,
      "되게": 7027,
      "부끄": 7028,
      "쉽게": 7029,
      "오버": 7030,
      "##기의": 7031,
      "##던지": 7032,
      "##불가": 7033,
      "##ㅠㅠㅠ": 7034,
      "소재가": 7035,
      "반전도": 7036,
      "상상력": 7037,
      "국민": 7038,
      "보러": 7039,
      "표정": 7040,
      "##속에서": 7041,
      "##가가": 7042,
      "##드라": 7043,
      "##버렸": 7044,
      "##줌마": 7045,
      "##겹다": 7046,
      "연출도": 7047,
      "##................": 7048,
      "보고싶다": 7049,
      "소름돋": 7050,
      "가서": 7051,
      "그립": 7052,
      "반성": 7053,
      "삶의": 7054,
      "설레": 7055,
      "아련": 7056,
      "있나": 7057,
      "전투": 7058,
      "태어": 7059,
      "##나가": 7060,
      "##했다는": 7061,
      "사람의": 7062,
      "수준이": 7063,
      "제목이": 7064,
      "언제나": 7065,
      "강렬": 7066,
      "거짓": 7067,
      "김기": 7068,
      "디즈니": 7069,
      "말할": 7070,
      "볼수록": 7071,
      "사는": 7072,
      "신경": 7073,
      "정서": 7074,
      "지구": 7075,
      "하네요": 7076,
      "##리기": 7077,
      "##류의": 7078,
      "##시킨": 7079,
      "##대는": 7080,
      "##히는": 7081,
      "##줘서": 7082,
      "##겼다": 7083,
      "지루하지": 7084,
      "##지않고": 7085,
      "필요한": 7086,
      "스케일": 7087,
      "같아": 7088,
      "두고": 7089,
      "봤으면": 7090,
      "비극": 7091,
      "산만": 7092,
      "수도": 7093,
      "##할까": 7094,
      "생각나는": 7095,
      "출연진": 7096,
      "독립영화": 7097,
      "가볍게": 7098,
      "비주얼": 7099,
      "심각": 7100,
      "없지만": 7101,
      "통쾌": 7102,
      "##원이": 7103,
      "##마지막": 7104,
      "##다운": 7105,
      "##해준": 7106,
      "##돌아": 7107,
      "##꿀잼": 7108,
      "##ㅋㅋㅋㅋㅋ": 7109,
      "좋았던": 7110,
      "슬프고": 7111,
      "드러": 7112,
      "선생": 7113,
      "스티": 7114,
      "스크": 7115,
      "씁쓸": 7116,
      "안봤": 7117,
      "일부": 7118,
      "조잡": 7119,
      "좋습니다": 7120,
      "##이해": 7121,
      "##보여": 7122,
      "##웠음": 7123,
      "지금은": 7124,
      "필요없는": 7125,
      "엉성한": 7126,
      "헐리우드": 7127,
      "몇년": 7128,
      "무시": 7129,
      "무언": 7130,
      "쓰래기": 7131,
      "할말": 7132,
      "##지의": 7133,
      "##소재": 7134,
      "##수는": 7135,
      "##와는": 7136,
      "##bb": 7137,
      "##효과": 7138,
      "!!!!!!": 7139,
      "재미있네요": 7140,
      "다시한번": 7141,
      "아이들": 7142,
      "인생을": 7143,
      "##보는게": 7144,
      "필요없다": 7145,
      "광고": 7146,
      "그것": 7147,
      "끝나는": 7148,
      "능력": 7149,
      "딱히": 7150,
      "에이": 7151,
      "역겨": 7152,
      "##었지": 7153,
      "일본영화": 7154,
      "결말은": 7155,
      "배우들도": 7156,
      "보고싶은": 7157,
      "게다가": 7158,
      "남을": 7159,
      "눈빛": 7160,
      "말을": 7161,
      "몰라도": 7162,
      "방금": 7163,
      "스포": 7164,
      "오랫": 7165,
      "의문": 7166,
      "의심": 7167,
      "이루": 7168,
      "인터": 7169,
      "평이": 7170,
      "##마음": 7171,
      "##기로": 7172,
      "##수의": 7173,
      "##오빠": 7174,
      "##에서의": 7175,
      "연기자": 7176,
      "소재로": 7177,
      "둘다": 7178,
      "받아": 7179,
      "싸구려": 7180,
      "악당": 7181,
      "있게": 7182,
      "존경": 7183,
      "##이니": 7184,
      "##독교": 7185,
      "##버리고": 7186,
      "...?": 7187,
      "!!!!!!!!!!": 7188,
      "좋아서": 7189,
      "결말도": 7190,
      "점수를": 7191,
      "가까": 7192,
      "섬세": 7193,
      "암튼": 7194,
      "없나": 7195,
      "이때": 7196,
      "이쁜": 7197,
      "있지": 7198,
      "좀더": 7199,
      "죽여": 7200,
      "하이": 7201,
      "##이며": 7202,
      "##ad": 7203,
      "##에만": 7204,
      "##지말": 7205,
      "##친다": 7206,
      "액션영화": 7207,
      "봐야할": 7208,
      "여기서": 7209,
      "건지": 7210,
      "시사회": 7211,
      "펑펑": 7212,
      "홍보": 7213,
      "##이를": 7214,
      "##이자": 7215,
      "##안에": 7216,
      "##중의": 7217,
      "##표현": 7218,
      "##하기도": 7219,
      "이제야": 7220,
      "##,,,,": 7221,
      "깨닫": 7222,
      "니콜": 7223,
      "드럽게": 7224,
      "청소년": 7225,
      "풋풋": 7226,
      "할말이": 7227,
      "##on": 7228,
      "##자단": 7229,
      "##관계": 7230,
      "웃기고": 7231,
      "로그": 7232,
      "마세요": 7233,
      "싫다": 7234,
      "와우": 7235,
      "일반": 7236,
      "##사의": 7237,
      "##봐요": 7238,
      "##했는지": 7239,
      "##봣는데": 7240,
      "영화라는": 7241,
      "영화보는": 7242,
      "재밌네": 7243,
      "##까지는": 7244,
      "어려운": 7245,
      "단지": 7246,
      "살다": 7247,
      "아픔": 7248,
      "않게": 7249,
      "에서": 7250,
      "이뻐": 7251,
      "있습니다": 7252,
      "점주는": 7253,
      "쵝오": 7254,
      "##가능": 7255,
      "##상이": 7256,
      "##점은": 7257,
      "##트콤": 7258,
      "##ㅉㅉ": 7259,
      "##하다가": 7260,
      "만들고": 7261,
      "정신병": 7262,
      "그린": 7263,
      "돈아까": 7264,
      "봣는데": 7265,
      "불구하고": 7266,
      "산으로": 7267,
      "성인": 7268,
      "싶어": 7269,
      "##로우": 7270,
      "##at": 7271,
      "##구니": 7272,
      "##마스": 7273,
      "##있어": 7274,
      "##두고": 7275,
      "이해할": 7276,
      "남자가": 7277,
      "그렇다고": 7278,
      "뛰어난": 7279,
      "마이너": 7280,
      "be": 7281,
      "견자단": 7282,
      "낮아서": 7283,
      "느와르": 7284,
      "단연": 7285,
      "발전": 7286,
      "새벽": 7287,
      "생애": 7288,
      "아나": 7289,
      "어머니": 7290,
      "외계": 7291,
      "잊을": 7292,
      "처럼": 7293,
      "##아님": 7294,
      "##하신": 7295,
      "##해진": 7296,
      "##드의": 7297,
      "##좋아요": 7298,
      "재밌었음": 7299,
      "지루할": 7300,
      "사랑스러운": 7301,
      "눈물을": 7302,
      "작가가": 7303,
      "나가": 7304,
      "연결": 7305,
      "##이유": 7306,
      "##라스": 7307,
      "##거운": 7308,
      "##느라": 7309,
      "##사람은": 7310,
      "##재밌어요": 7311,
      "아쉬움": 7312,
      "시대를": 7313,
      "##하시는": 7314,
      "마무리": 7315,
      "남겨": 7316,
      "남편": 7317,
      "대표": 7318,
      "밋밋": 7319,
      "베스트": 7320,
      "시걸": 7321,
      "우주": 7322,
      "이따위": 7323,
      "인도": 7324,
      "죄다": 7325,
      "##하셨": 7326,
      "##거리는": 7327,
      "##란다": 7328,
      "##영화임": 7329,
      "이거보고": 7330,
      "##장면이": 7331,
      "ㅇㅇ": 7332,
      "고통": 7333,
      "과장": 7334,
      "누구나": 7335,
      "되고": 7336,
      "때문": 7337,
      "맨날": 7338,
      "벌써": 7339,
      "생생": 7340,
      "스스로": 7341,
      "시시": 7342,
      "##의미": 7343,
      "##가락": 7344,
      "이런영화가": 7345,
      "재미있었다": 7346,
      "느낌을": 7347,
      "##연기가": 7348,
      "현실적인": 7349,
      "멋지다": 7350,
      "기독교": 7351,
      "나은": 7352,
      "묘사": 7353,
      "시각": 7354,
      "안돼": 7355,
      "있어요": 7356,
      "흔한": 7357,
      "##ie": 7358,
      "##이션": 7359,
      "##을거": 7360,
      "##르노": 7361,
      "##반전": 7362,
      "##무섭": 7363,
      "##자고": 7364,
      "##식을": 7365,
      "##집니다": 7366,
      "##영화도": 7367,
      "무엇을": 7368,
      "헐리웃": 7369,
      "나옴": 7370,
      "바뀌": 7371,
      "보니까": 7372,
      "뻔하고": 7373,
      "슬퍼": 7374,
      "아류": 7375,
      "영국": 7376,
      "주변": 7377,
      "집에서": 7378,
      "##한다고": 7379,
      "##걸로": 7380,
      "##물을": 7381,
      "##수없는": 7382,
      "##버리": 7383,
      "##줘야": 7384,
      "##영화라고": 7385,
      "시간가는": 7386,
      "재미없어요": 7387,
      "모든게": 7388,
      "아직까지": 7389,
      "##아니라": 7390,
      "뒤로": 7391,
      "러닝타임": 7392,
      "못했다": 7393,
      "상업": 7394,
      "섹스": 7395,
      "은근": 7396,
      "##만점": 7397,
      "##아가": 7398,
      "##하라": 7399,
      "##도가": 7400,
      "##성에": 7401,
      "##작가": 7402,
      "##봤음": 7403,
      "##봤던": 7404,
      "##온다": 7405,
      "몰입감": 7406,
      "몰입해서": 7407,
      "옛날에": 7408,
      "단순한": 7409,
      "전문가": 7410,
      "김기덕": 7411,
      "다니": 7412,
      "많다": 7413,
      "발로": 7414,
      "분들": 7415,
      "설마": 7416,
      "아들": 7417,
      "에피": 7418,
      "한데": 7419,
      "##하구": 7420,
      "##랍니다": 7421,
      "느끼는": 7422,
      "........": 7423,
      "로그인": 7424,
      "게이": 7425,
      "고등학": 7426,
      "끝난": 7427,
      "되지": 7428,
      "명품": 7429,
      "어휴": 7430,
      "외모": 7431,
      "전반": 7432,
      "##나이": 7433,
      "##영이": 7434,
      "생각없이": 7435,
      "시간아까": 7436,
      "잔잔하고": 7437,
      "긴장감도": 7438,
      "같아서": 7439,
      "국내": 7440,
      "노답": 7441,
      "떠나서": 7442,
      "세월": 7443,
      "없다는": 7444,
      "찝찝": 7445,
      "해리": 7446,
      "##이후": 7447,
      "##하려고": 7448,
      "##나왔": 7449,
      "##남는": 7450,
      "아이돌": 7451,
      "##배우들": 7452,
      "초반에": 7453,
      "##자체가": 7454,
      "마이클": 7455,
      "##ing": 7456,
      "공부": 7457,
      "덕분에": 7458,
      "연속": 7459,
      "위대한": 7460,
      "특수": 7461,
      "##인들": 7462,
      "##었는지": 7463,
      "##ov": 7464,
      "##함에": 7465,
      "##셔서": 7466,
      "##으로써": 7467,
      "기대안하고": 7468,
      "안타깝다": 7469,
      "?!": 7470,
      "그거": 7471,
      "높다": 7472,
      "레전": 7473,
      "싶네요": 7474,
      "아역": 7475,
      "인내": 7476,
      "지켜": 7477,
      "찌질": 7478,
      "##로도": 7479,
      "##한지": 7480,
      "##물이": 7481,
      "##우고": 7482,
      "##결말": 7483,
      "##대가": 7484,
      "##져요": 7485,
      "작품을": 7486,
      "로봇": 7487,
      "발견": 7488,
      "안보고": 7489,
      "않지만": 7490,
      "우와": 7491,
      "패러": 7492,
      "한참": 7493,
      "##인트": 7494,
      "##나와": 7495,
      "##가를": 7496,
      "##명이": 7497,
      "최고입니다": 7498,
      "보고나면": 7499,
      "##!!!": 7500,
      "만든다": 7501,
      "대사가": 7502,
      "유쾌하고": 7503,
      "탄탄한": 7504,
      "즐겁게": 7505,
      "갈등": 7506,
      "고마": 7507,
      "다양": 7508,
      "믿을": 7509,
      "반복": 7510,
      "보길": 7511,
      "##만드": 7512,
      "##하려": 7513,
      "##겠네요": 7514,
      "##았고": 7515,
      "##계의": 7516,
      "##긴다": 7517,
      "##됩니다": 7518,
      "##쳤다": 7519,
      "생각하고": 7520,
      "사랑의": 7521,
      "인생의": 7522,
      "영화에요": 7523,
      ",,,,": 7524,
      "빠져들": 7525,
      "겨울": 7526,
      "결과": 7527,
      "기가": 7528,
      "놀랐": 7529,
      "망쳐": 7530,
      "문화": 7531,
      "빼고": 7532,
      "시트콤": 7533,
      "않아": 7534,
      "앞으로도": 7535,
      "왜케": 7536,
      "타임": 7537,
      "특이": 7538,
      "##아니다": 7539,
      "##나옴": 7540,
      "##ar": 7541,
      "##려요": 7542,
      "##처구니": 7543,
      "##씬은": 7544,
      "##양이": 7545,
      "##럽고": 7546,
      "##인가요": 7547,
      "##더라면": 7548,
      "연기력도": 7549,
      "즐거운": 7550,
      "꿈을": 7551,
      "못할": 7552,
      "볼게": 7553,
      "속에": 7554,
      "아줌마": 7555,
      "여행": 7556,
      "있네요": 7557,
      "조선": 7558,
      "코난": 7559,
      "히어로": 7560,
      "##연출": 7561,
      "생각나": 7562,
      "음악과": 7563,
      "##리스마": 7564,
      "이쁘고": 7565,
      "멍청한": 7566,
      "검색": 7567,
      "무비": 7568,
      "박진": 7569,
      "새롭": 7570,
      "제로": 7571,
      "쩐다": 7572,
      "최강": 7573,
      "치밀": 7574,
      "편견": 7575,
      "##ll": 7576,
      "##냐고": 7577,
      "##기분": 7578,
      "##과의": 7579,
      "##거임": 7580,
      "##전쟁": 7581,
      "하는지": 7582,
      "아이가": 7583,
      "##스러움": 7584,
      "힘들다": 7585,
      "잔인한": 7586,
      "의외로": 7587,
      "가져": 7588,
      "관심": 7589,
      "떠오": 7590,
      "미모": 7591,
      "없는데": 7592,
      "우정": 7593,
      "울었다": 7594,
      "움직": 7595,
      "있어야": 7596,
      "짝퉁": 7597,
      "##지어": 7598,
      "##스릴": 7599,
      "##무슨": 7600,
      "##였지만": 7601,
      "##떨어": 7602,
      "##따구": 7603,
      "##불어": 7604,
      "쓰레기다": 7605,
      "좋아할": 7606,
      "볼만하다": 7607,
      "##재미없": 7608,
      "모르겠고": 7609,
      "초등학생": 7610,
      "에피소": 7611,
      "기술": 7612,
      "끝날": 7613,
      "대부분": 7614,
      "비현실": 7615,
      "자살": 7616,
      "작은": 7617,
      "죽은": 7618,
      "##만화": 7619,
      "##도안": 7620,
      "##오글": 7621,
      "##석이": 7622,
      "##되서": 7623,
      "##키는": 7624,
      "##호가": 7625,
      "##쳐서": 7626,
      "재밋다": 7627,
      "##시키는": 7628,
      "가면": 7629,
      "끌어": 7630,
      "눈에": 7631,
      "동안": 7632,
      "말하는": 7633,
      "무척": 7634,
      "뭉클": 7635,
      "슬펐": 7636,
      "신파": 7637,
      "있으면": 7638,
      "좋게": 7639,
      "지겨": 7640,
      "##하겠다": 7641,
      "##정신": 7642,
      "##소리가": 7643,
      "##겠음": 7644,
      "##했네": 7645,
      "영화인듯": 7646,
      "##하다니": 7647,
      "재미있었어요": 7648,
      "아깝지": 7649,
      "무섭다": 7650,
      "영화였어요": 7651,
      "##ㅠㅠㅠㅠㅠㅠㅠㅠ": 7652,
      "이후로": 7653,
      "학교에서": 7654,
      "손발이": 7655,
      "경험": 7656,
      "내려": 7657,
      "달달": 7658,
      "불러": 7659,
      "어처구니": 7660,
      "편의": 7661,
      "##하진": 7662,
      "##om": 7663,
      "##소설": 7664,
      "##트맨": 7665,
      "##엄마": 7666,
      "사랑은": 7667,
      "나오면": 7668,
      "원작의": 7669,
      "인간이": 7670,
      "따뜻해지는": 7671,
      "유명한": 7672,
      "높아": 7673,
      "더러운": 7674,
      "본영화": 7675,
      "이정": 7676,
      "제이": 7677,
      "주성": 7678,
      "할까": 7679,
      "##이로": 7680,
      "##으니까": 7681,
      "##야말로": 7682,
      "##와의": 7683,
      "##작이": 7684,
      "작품이다": 7685,
      "완전히": 7686,
      "하나의": 7687,
      "유치함": 7688,
      "아쉽네요": 7689,
      "알바들": 7690,
      "신선하고": 7691,
      "거슬": 7692,
      "김민": 7693,
      "늘어": 7694,
      "대중": 7695,
      "많아": 7696,
      "멋있다": 7697,
      "뭐라": 7698,
      "보았다": 7699,
      "복잡": 7700,
      "봤더니": 7701,
      "빼고는": 7702,
      "오바": 7703,
      "울고": 7704,
      "투자": 7705,
      "허세": 7706,
      "##봅니다": 7707,
      "평점보고": 7708,
      "지루했다": 7709,
      "남자의": 7710,
      "가슴아": 7711,
      "흥미로운": 7712,
      "스크린": 7713,
      "끝이": 7714,
      "더불어": 7715,
      "만나": 7716,
      "민망": 7717,
      "방법": 7718,
      "스파이": 7719,
      "여태": 7720,
      "영혼": 7721,
      "젠장": 7722,
      "조합": 7723,
      "조용": 7724,
      "좋지만": 7725,
      "직접": 7726,
      "학생": 7727,
      "힘이": 7728,
      "##라가": 7729,
      "##해지": 7730,
      "##거라": 7731,
      "##겠습니다": 7732,
      "##언니": 7733,
      "##테일": 7734,
      "##씨의": 7735,
      "한번쯤": 7736,
      "감정을": 7737,
      "모르겠지만": 7738,
      "역대급": 7739,
      "극치": 7740,
      "미드": 7741,
      "박수를": 7742,
      "범인": 7743,
      "보인다": 7744,
      "없었던": 7745,
      "왠만하면": 7746,
      "일이": 7747,
      "카리스마": 7748,
      "틀어": 7749,
      "##정은": 7750,
      "##사수": 7751,
      "##았지만": 7752,
      "##대사": 7753,
      "##했네요": 7754,
      "##내가": 7755,
      "##버트": 7756,
      "##엇다": 7757,
      "##그리고": 7758,
      "영화들": 7759,
      "지루하게": 7760,
      "쓰레기같은": 7761,
      "우리는": 7762,
      "장면에서": 7763,
      "##시간에": 7764,
      "개연성이": 7765,
      "레전드": 7766,
      "바꿔": 7767,
      "살고": 7768,
      "삶에": 7769,
      "어우": 7770,
      "오로": 7771,
      "웃김": 7772,
      "이럴": 7773,
      "죽을": 7774,
      "포르노": 7775,
      "필름": 7776,
      "##가족": 7777,
      "##성은": 7778,
      "##겠어요": 7779,
      "##미가": 7780,
      "##체가": 7781,
      "##관이": 7782,
      "##왜이": 7783,
      "좋았지만": 7784,
      "유치하다": 7785,
      "##재미없다": 7786,
      "전개도": 7787,
      "웃음이": 7788,
      "패러디": 7789,
      "교육": 7790,
      "김수": 7791,
      "깜짝": 7792,
      "본다면": 7793,
      "않나": 7794,
      "인기": 7795,
      "일품": 7796,
      "정의": 7797,
      "##본영화": 7798,
      "##가지고": 7799,
      "##지금": 7800,
      "##영환": 7801,
      "##점도": 7802,
      "##거같다": 7803,
      "##드립니다": 7804,
      "##버림": 7805,
      "##간의": 7806,
      "영화보면서": 7807,
      "감동적이다": 7808,
      "!!!!!": 7809,
      "##시간이": 7810,
      "무섭지도": 7811,
      "좋겠어요": 7812,
      "전설의": 7813,
      "잊혀지지": 7814,
      "가벼": 7815,
      "도전": 7816,
      "레알": 7817,
      "볼거리": 7818,
      "비판": 7819,
      "빌려": 7820,
      "응원": 7821,
      "이도": 7822,
      "챙겨": 7823,
      "##이스": 7824,
      "##당한": 7825,
      "##시작": 7826,
      "##려나": 7827,
      "##였고": 7828,
      "##버리는": 7829,
      "##버스터": 7830,
      "영화제": 7831,
      "재밌다고": 7832,
      "기대했는데": 7833,
      "좋았으나": 7834,
      "의미를": 7835,
      "주성치": 7836,
      "년전에": 7837,
      "다룬": 7838,
      "똑같": 7839,
      "모를": 7840,
      "못생": 7841,
      "못해": 7842,
      "보긴": 7843,
      "뿐이다": 7844,
      "신고": 7845,
      "타이": 7846,
      "화끈": 7847,
      "##적은": 7848,
      "##아버지": 7849,
      "##것들": 7850,
      "##니깐": 7851,
      "##없네요": 7852,
      "##었을까": 7853,
      "##en": 7854,
      "##시에": 7855,
      "##받은": 7856,
      "##유치": 7857,
      "##봤습니다": 7858,
      "##영화라": 7859,
      "생각하는": 7860,
      "감동의": 7861,
      "우리의": 7862,
      "보여주고": 7863,
      "원작이": 7864,
      "이유를": 7865,
      "진부하고": 7866,
      "지나치게": 7867,
      "초등학교": 7868,
      ".,": 7869,
      "류승": 7870,
      "먹고": 7871,
      "몇몇": 7872,
      "세련": 7873,
      "예뻐": 7874,
      "이용": 7875,
      "잠깐": 7876,
      "커플": 7877,
      "##것만": 7878,
      "##레딧": 7879,
      "##함은": 7880,
      "##거면": 7881,
      "##우기": 7882,
      "##그렇": 7883,
      "##살다": 7884,
      "##bc": 7885,
      "재미와": 7886,
      "재미잇": 7887,
      "이해하기": 7888,
      "가슴에": 7889,
      "뛰어넘": 7890,
      "이쁘다": 7891,
      "그녀의": 7892,
      "c급": 7893,
      "ㄷㄷㄷ": 7894,
      "감히": 7895,
      "강력": 7896,
      "당연": 7897,
      "드립니다": 7898,
      "많고": 7899,
      "못한다": 7900,
      "보며": 7901,
      "볼수있": 7902,
      "야동": 7903,
      "어지": 7904,
      "짜임": 7905,
      "풍경": 7906,
      "할머니": 7907,
      "##만을": 7908,
      "##아주": 7909,
      "##요일": 7910,
      "##에대한": 7911,
      "##주기도": 7912,
      "##사이": 7913,
      "##했어": 7914,
      "##긴한데": 7915,
      "##근데": 7916,
      "##캐스팅": 7917,
      "사람들의": 7918,
      "좋아해서": 7919,
      "한국영화는": 7920,
      "명작이": 7921,
      "표현한": 7922,
      "다큐멘터리": 7923,
      "그건": 7924,
      "달라": 7925,
      "대화": 7926,
      "반개도": 7927,
      "봤을": 7928,
      "분이": 7929,
      "아기": 7930,
      "악마": 7931,
      "않을까": 7932,
      "영어": 7933,
      "욕망": 7934,
      "이끌": 7935,
      "제임": 7936,
      "주말": 7937,
      "착한": 7938,
      "참으로": 7939,
      "##로써": 7940,
      "##리언": 7941,
      "##는건": 7942,
      "##하던데": 7943,
      "##비디오": 7944,
      "##부족": 7945,
      "##해진다": 7946,
      "##받고": 7947,
      "##운드": 7948,
      "##갔다": 7949,
      "##그대로": 7950,
      "##들이랑": 7951,
      "좋았을": 7952,
      "모르게": 7953,
      "##재밌다": 7954,
      "웃기지도": 7955,
      "싶은데": 7956,
      "tv에서": 7957,
      "말도안되는": 7958,
      "겨우": 7959,
      "공짜": 7960,
      "들었다": 7961,
      "따로": 7962,
      "변태": 7963,
      "보통": 7964,
      "보려고": 7965,
      "봤을때": 7966,
      "아동": 7967,
      "제시": 7968,
      "해결": 7969,
      "##로만": 7970,
      "##니당": 7971,
      "##용으로": 7972,
      "##성의": 7973,
      "##루스": 7974,
      "##임을": 7975,
      "##애들": 7976,
      "사랑이야기": 7977,
      "아까울": 7978,
      "##재밌음": 7979,
      "모두가": 7980,
      "ebs": 7981,
      "관한": 7982,
      "대해서": 7983,
      "똑같은": 7984,
      "아닙": 7985,
      "안본": 7986,
      "점수가": 7987,
      "테러": 7988,
      "할리": 7989,
      "##있나": 7990,
      "##했나": 7991,
      "##명의": 7992,
      "##괜찮": 7993,
      "스토리의": 7994,
      "좋아하는데": 7995,
      "짜증난다": 7996,
      "이제서야": 7997,
      "캐릭터가": 7998,
      "잼있어요": 7999,
      "작가님": 8000,
      "괜찮은데": 8001,
      "장르가": 8002,
      "시간가는줄": 8003,
      "가지": 8004,
      "감흥": 8005,
      "개막장": 8006,
      "그당시": 8007,
      "넘치는": 8008,
      "못함": 8009,
      "빈약": 8010,
      "심하게": 8011,
      "이소": 8012,
      "이민": 8013,
      "자주": 8014,
      "##라인": 8015,
      "##동생": 8016,
      "##자나": 8017,
      "##먹는": 8018,
      "##신분": 8019,
      "##토록": 8020,
      "##놈들": 8021,
      "보여줬": 8022,
      "남자주인공": 8023,
      "아름다움": 8024,
      "느껴진다": 8025,
      "어린시절": 8026,
      "행복한": 8027,
      ".........": 8028,
      "보지마라": 8029,
      "개뿔": 8030,
      "거기에": 8031,
      "그것도": 8032,
      "기발": 8033,
      "담아": 8034,
      "올려": 8035,
      "잊지": 8036,
      "죽이고": 8037,
      "##속의": 8038,
      "##상황": 8039,
      "##대를": 8040,
      "##씬이": 8041,
      "재밌던데": 8042,
      "작품은": 8043,
      "##연기도": 8044,
      "정도의": 8045,
      "긴장감이": 8046,
      "부족하다": 8047,
      "노래도": 8048,
      "한심한": 8049,
      "이래서": 8050,
      "you": 8051,
      "내면": 8052,
      "대본": 8053,
      "둘이": 8054,
      "말아먹": 8055,
      "미스터": 8056,
      "신비": 8057,
      "어두": 8058,
      "없지": 8059,
      "위로": 8060,
      "점정도": 8061,
      "##기지": 8062,
      "##되었다": 8063,
      "##식의": 8064,
      "##포터": 8065,
      "##캐릭터": 8066,
      "내가본": 8067,
      "하는거": 8068,
      "관객을": 8069,
      "간다": 8070,
      "동성애": 8071,
      "무술": 8072,
      "보자": 8073,
      "블록": 8074,
      "수고": 8075,
      "싶을": 8076,
      "어쩜": 8077,
      "없어요": 8078,
      "작위": 8079,
      "편보다": 8080,
      "##음이": 8081,
      "##es": 8082,
      "##은영화": 8083,
      "##려다가": 8084,
      "##되네요": 8085,
      "##느니": 8086,
      "##버그": 8087,
      "이런영화를": 8088,
      "##들이나": 8089,
      "있는지": 8090,
      "있었지만": 8091,
      "영원히": 8092,
      "##지도않고": 8093,
      "제임스": 8094,
      "드림": 8095,
      "받을": 8096,
      "보다는": 8097,
      "아픈": 8098,
      "하늘": 8099,
      "##갈수록": 8100,
      "##받는": 8101,
      "##우가": 8102,
      "##답답": 8103,
      "생각함": 8104,
      "재미없게": 8105,
      "다시는": 8106,
      "ㅎㅎㅎㅎ": 8107,
      "##사람들은": 8108,
      "잼있다": 8109,
      "왜이래": 8110,
      "세상을": 8111,
      "답답한": 8112,
      "훈훈한": 8113,
      "연예인": 8114,
      "막판에": 8115,
      "깨닫게": 8116,
      "no": 8117,
      "깨달": 8118,
      "낚시": 8119,
      "디테일": 8120,
      "무리": 8121,
      "새끼": 8122,
      "설득": 8123,
      "아예": 8124,
      "여름": 8125,
      "인해": 8126,
      "인디": 8127,
      "있구나": 8128,
      "전율": 8129,
      "조니": 8130,
      "최민": 8131,
      "##아나": 8132,
      "##있어서": 8133,
      "##문제": 8134,
      "보여준다": 8135,
      "자신이": 8136,
      "자신을": 8137,
      "ㅋㅋㅋㅋㅋㅋ": 8138,
      "킬링타임용으로": 8139,
      "중요한": 8140,
      "보았습니다": 8141,
      "기회": 8142,
      "다이": 8143,
      "다루": 8144,
      "단편": 8145,
      "도망": 8146,
      "등등": 8147,
      "떠올": 8148,
      "모험": 8149,
      "비밀": 8150,
      "안볼": 8151,
      "올리": 8152,
      "장애": 8153,
      "최초": 8154,
      "클레": 8155,
      "하네": 8156,
      "##원의": 8157,
      "##이기": 8158,
      "##요소": 8159,
      "##머리": 8160,
      "##나다": 8161,
      "##설정": 8162,
      "##게요": 8163,
      "##했다고": 8164,
      "##연이": 8165,
      "영화네": 8166,
      "배우를": 8167,
      "명작입니다": 8168,
      "현실성": 8169,
      "수준의": 8170,
      "##장면은": 8171,
      "문제가": 8172,
      "개연성도": 8173,
      "여러가지": 8174,
      "안타까운": 8175,
      "감명깊": 8176,
      "그만큼": 8177,
      "대놓고": 8178,
      "만한": 8179,
      "배역": 8180,
      "사진": 8181,
      "사고": 8182,
      "색다른": 8183,
      "숨겨": 8184,
      "않네요": 8185,
      "야구": 8186,
      "오빠": 8187,
      "우려": 8188,
      "위해서": 8189,
      "짝이": 8190,
      "찍어": 8191,
      "해라": 8192,
      "##리카": 8193,
      "##도는": 8194,
      "##노래": 8195,
      "##라기": 8196,
      "##어여": 8197,
      "##기다": 8198,
      "##장을": 8199,
      "##드로": 8200,
      "##드시": 8201,
      "##았을": 8202,
      "##얘기": 8203,
      "##감도": 8204,
      "정말이지": 8205,
      "최고임": 8206,
      "기대이상": 8207,
      "한국인": 8208,
      "##사람들이": 8209,
      "분위기가": 8210,
      "##스타일": 8211,
      "##,.,.": 8212,
      "m창": 8213,
      "결정": 8214,
      "남은": 8215,
      "방영": 8216,
      "볼거": 8217,
      "부자": 8218,
      "분들은": 8219,
      "세기": 8220,
      "심오": 8221,
      "애들은": 8222,
      "유지": 8223,
      "잔뜩": 8224,
      "##는대": 8225,
      "##인것": 8226,
      "##이들": 8227,
      "##주가": 8228,
      "##비가": 8229,
      "##루즈": 8230,
      "##력을": 8231,
      "##러워": 8232,
      "연기잘": 8233,
      "##하는영화": 8234,
      "생각하면": 8235,
      "나오지": 8236,
      "주인공은": 8237,
      "반전은": 8238,
      "억지스러운": 8239,
      "그렇지": 8240,
      "그저그런": 8241,
      "시청자": 8242,
      "추억이": 8243,
      "오래된": 8244,
      "##것같아요": 8245,
      "비디오로": 8246,
      "가치가": 8247,
      "죽는줄": 8248,
      "짜임새": 8249,
      "바꾸": 8250,
      "별개": 8251,
      "살려": 8252,
      "세번": 8253,
      "심지어": 8254,
      "아래": 8255,
      "양심": 8256,
      "이것이": 8257,
      "있었는데": 8258,
      "죽이는": 8259,
      "집에": 8260,
      "편을": 8261,
      "한숨": 8262,
      "##보자": 8263,
      "##건만": 8264,
      "##추기": 8265,
      "##그리": 8266,
      "##영화인데": 8267,
      "생각나서": 8268,
      "##보다도": 8269,
      "오랜만": 8270,
      "의미가": 8271,
      "답답하고": 8272,
      "본방사수": 8273,
      "결코": 8274,
      "돈을": 8275,
      "번째": 8276,
      "상관": 8277,
      "웃고": 8278,
      "으리": 8279,
      "편도": 8280,
      "해석": 8281,
      "##인과": 8282,
      "##ver": 8283,
      "##분이": 8284,
      "##왔다": 8285,
      "##통령": 8286,
      "재밌을": 8287,
      "만들다니": 8288,
      "##다는걸": 8289,
      "하나같이": 8290,
      "가슴을": 8291,
      "만들어도": 8292,
      "극장가서": 8293,
      "여운을": 8294,
      "어이없": 8295,
      "재미도없고": 8296,
      "노래가": 8297,
      "##평점이": 8298,
      "기다려": 8299,
      "어쩔수": 8300,
      "알겠는데": 8301,
      "스트레스": 8302,
      "국가": 8303,
      "무한": 8304,
      "부작": 8305,
      "비하면": 8306,
      "성격": 8307,
      "알수": 8308,
      "언니": 8309,
      "없습니다": 8310,
      "제외": 8311,
      "지났": 8312,
      "한명": 8313,
      "##리네": 8314,
      "##tv": 8315,
      "##만은": 8316,
      "##쓰고": 8317,
      "##저도": 8318,
      "##지요": 8319,
      "##드를": 8320,
      "##감은": 8321,
      "만들면": 8322,
      "재미없었다": 8323,
      "연출과": 8324,
      "이해안": 8325,
      "이야기는": 8326,
      "아무런": 8327,
      "결말을": 8328,
      "##지마세요": 8329,
      "모르겠음": 8330,
      "몰입도가": 8331,
      "느낄수": 8332,
      "##보고싶다": 8333,
      "실제로": 8334,
      "소중한": 8335,
      "나머지": 8336,
      "감정이입": 8337,
      "길게": 8338,
      "높게": 8339,
      "데이": 8340,
      "뭐하나": 8341,
      "속에서": 8342,
      "스페": 8343,
      "연극": 8344,
      "열정": 8345,
      "잔혹": 8346,
      "잘하고": 8347,
      "장국": 8348,
      "적당히": 8349,
      "정확": 8350,
      "제니": 8351,
      "조작": 8352,
      "##지말고": 8353,
      "##보네": 8354,
      "##세포": 8355,
      "##기에는": 8356,
      "##데이": 8357,
      "##티브": 8358,
      "##무지": 8359,
      "##미네": 8360,
      "##심으로": 8361,
      "##겨서": 8362,
      "##애가": 8363,
      "##피스": 8364,
      "##겁니다": 8365,
      "##형래": 8366,
      "##씨는": 8367,
      "##ut": 8368,
      "##하는건": 8369,
      "최고로": 8370,
      "최고였다": 8371,
      "아니야": 8372,
      "한국의": 8373,
      "별로임": 8374,
      "소름이": 8375,
      "지나도": 8376,
      "약간의": 8377,
      "최근에": 8378,
      "다운받아": 8379,
      "구성이": 8380,
      "기자": 8381,
      "기준": 8382,
      "끔찍": 8383,
      "둘째": 8384,
      "봅니다": 8385,
      "부실": 8386,
      "선동": 8387,
      "소소한": 8388,
      "안습": 8389,
      "앞뒤": 8390,
      "야한": 8391,
      "책을": 8392,
      "치고": 8393,
      "##만다": 8394,
      "##소녀": 8395,
      "##때까지": 8396,
      "##바이": 8397,
      "##역시": 8398,
      "##관람": 8399,
      "##얼굴": 8400,
      "##종일": 8401,
      "##웠지만": 8402,
      "##눈물": 8403,
      "##멘타": 8404,
      "##하고자": 8405,
      "재미있습니다": 8406,
      "매력을": 8407,
      "떨어진다": 8408,
      "막장드라마": 8409,
      "##만큼은": 8410,
      "인상적이": 8411,
      "ㅉㅉㅉ": 8412,
      "여주가": 8413,
      "시청률이": 8414,
      "크리스마스": 8415,
      "참신한": 8416,
      "아닙니다": 8417,
      "블록버스터": 8418,
      "to": 8419,
      "그야말로": 8420,
      "데리고": 8421,
      "또다른": 8422,
      "먼가": 8423,
      "브루스": 8424,
      "서부": 8425,
      "아내": 8426,
      "울컥": 8427,
      "이드라마": 8428,
      "있던": 8429,
      "잘어울": 8430,
      "정체": 8431,
      "혹은": 8432,
      "##it": 8433,
      "##이였다": 8434,
      "##줄이야": 8435,
      "##해주세요": 8436,
      "##장한": 8437,
      "##취향": 8438,
      "##복을": 8439,
      "##빼고": 8440,
      "##zz": 8441,
      "영화화": 8442,
      "평점조": 8443,
      "##다는거": 8444,
      "마지막까지": 8445,
      "소재도": 8446,
      "원작에": 8447,
      "흥미로": 8448,
      "##레이션": 8449,
      "엉성하고": 8450,
      "잘봤어요": 8451,
      "당신은": 8452,
      "예쁘고": 8453,
      "##파이어": 8454,
      "느꼈다": 8455,
      "나쁘지": 8456,
      "of": 8457,
      "감각": 8458,
      "낚였다": 8459,
      "낮네": 8460,
      "담배": 8461,
      "못봐": 8462,
      "뭐니": 8463,
      "별반": 8464,
      "빠진": 8465,
      "새로": 8466,
      "수많은": 8467,
      "언젠": 8468,
      "일깨": 8469,
      "자식": 8470,
      "잼나게": 8471,
      "주기도": 8472,
      "첨엔": 8473,
      "첫사랑": 8474,
      "충실": 8475,
      "하다가": 8476,
      "##는듯": 8477,
      "##도를": 8478,
      "##상에": 8479,
      "##지면": 8480,
      "##부를": 8481,
      "##때문": 8482,
      "##생활": 8483,
      "##과서": 8484,
      "##신은": 8485,
      "##좋음": 8486,
      "##웠어요": 8487,
      "배우들은": 8488,
      "처음에는": 8489,
      "영상이": 8490,
      "많은데": 8491,
      "##생각없이": 8492,
      "시리즈중": 8493,
      "무엇인지": 8494,
      "cg가": 8495,
      "##부분이": 8496,
      "식상한": 8497,
      "살다살다": 8498,
      "갖고": 8499,
      "그자체": 8500,
      "끝났": 8501,
      "다크": 8502,
      "됩니다": 8503,
      "만남": 8504,
      "살면서": 8505,
      "생활": 8506,
      "안에": 8507,
      "안된": 8508,
      "애기": 8509,
      "열받": 8510,
      "유아": 8511,
      "의리": 8512,
      "이라는": 8513,
      "조카": 8514,
      "질리지": 8515,
      "탄생": 8516,
      "하아": 8517,
      "할수": 8518,
      "##re": 8519,
      "##해주고": 8520,
      "##봤지만": 8521,
      "##든지": 8522,
      "##강추": 8523,
      "##냈다": 8524,
      "이런건": 8525,
      "느낌의": 8526,
      "주인공들": 8527,
      "##배우가": 8528,
      "친구가": 8529,
      "##????????": 8530,
      "부모님": 8531,
      "##스릴러": 8532,
      "거부": 8533,
      "달리": 8534,
      "로버트": 8535,
      "매일": 8536,
      "본게": 8537,
      "봐줄": 8538,
      "사투": 8539,
      "손에": 8540,
      "시키": 8541,
      "잼잇": 8542,
      "핵노잼": 8543,
      "형사": 8544,
      "##인들이": 8545,
      "##나니": 8546,
      "##르게": 8547,
      "##후의": 8548,
      "##어리": 8549,
      "##지다": 8550,
      "##보니까": 8551,
      "##겠다는": 8552,
      "##되면": 8553,
      "##능력": 8554,
      "##영화입니다": 8555,
      "기대했": 8556,
      "명작을": 8557,
      "##ooo": 8558,
      "짜증만": 8559,
      "##나오고": 8560,
      "##만들어": 8561,
      "훌륭하다": 8562,
      "살아가는": 8563,
      "##내용이": 8564,
      "배경음악": 8565,
      "점대는": 8566,
      "집중해서": 8567,
      "년도에": 8568,
      "태어나서": 8569,
      "거짓말": 8570,
      "스티븐": 8571,
      "다양한": 8572,
      "김혜": 8573,
      "남네요": 8574,
      "낮게": 8575,
      "넘게": 8576,
      "놓고": 8577,
      "명화": 8578,
      "뭘까": 8579,
      "베드": 8580,
      "빼면": 8581,
      "심형래": 8582,
      "주기": 8583,
      "집착": 8584,
      "플롯": 8585,
      "했으면": 8586,
      "헤어": 8587,
      "효과": 8588,
      "##리면": 8589,
      "##잡고": 8590,
      "##기전에": 8591,
      "##역사": 8592,
      "##명을": 8593,
      "##극장": 8594,
      "##신을": 8595,
      "이런영화는": 8596,
      "생각했는데": 8597,
      "감동은": 8598,
      "감독을": 8599,
      "시간만": 8600,
      "하는게": 8601,
      "이상하게": 8602,
      "많은걸": 8603,
      "연기력은": 8604,
      "##는거야": 8605,
      "아쉽지만": 8606,
      "엔딩이": 8607,
      "역사를": 8608,
      "##인줄알": 8609,
      "한편의": 8610,
      "놀라운": 8611,
      "아류작": 8612,
      "##미네이터": 8613,
      "근래": 8614,
      "꼬마": 8615,
      "꽤나": 8616,
      "당연히": 8617,
      "듣고": 8618,
      "러시아": 8619,
      "바랍니다": 8620,
      "비행": 8621,
      "소년": 8622,
      "시끄": 8623,
      "정작": 8624,
      "조절": 8625,
      "주지": 8626,
      "편에": 8627,
      "##이렇게": 8628,
      "##하군": 8629,
      "##것같은": 8630,
      "##음을": 8631,
      "##티즌": 8632,
      "##동차": 8633,
      "##장난": 8634,
      "##치가": 8635,
      "##퓨터": 8636,
      "##그만": 8637,
      "##편이": 8638,
      "##누나": 8639,
      "##낸다": 8640,
      "영화인가": 8641,
      "봤는데도": 8642,
      "##없는영화": 8643,
      "##인데도": 8644,
      "여자의": 8645,
      "여자주인공": 8646,
      "만든영화": 8647,
      "보기에는": 8648,
      "시리즈는": 8649,
      "##감독이": 8650,
      "부분도": 8651,
      "이딴걸": 8652,
      "돌아가": 8653,
      "어느정도": 8654,
      "주제를": 8655,
      "ㅋㅋㅋㅋㅋㅋㅋ": 8656,
      "교훈을": 8657,
      "소설을": 8658,
      "볼수있는": 8659,
      "특별한": 8660,
      "쓸데없이": 8661,
      "에피소드": 8662,
      "가르": 8663,
      "고맙": 8664,
      "교과서": 8665,
      "나랑": 8666,
      "다를": 8667,
      "따분": 8668,
      "만약": 8669,
      "무료": 8670,
      "본거": 8671,
      "볼때": 8672,
      "스텝": 8673,
      "신의": 8674,
      "영향": 8675,
      "읽어": 8676,
      "임팩": 8677,
      "잠시": 8678,
      "점이다": 8679,
      "주윤": 8680,
      "타고": 8681,
      "##로드": 8682,
      "##라의": 8683,
      "##함의": 8684,
      "##였어": 8685,
      "##엇는데": 8686,
      "##형님": 8687,
      "##강호": 8688,
      "##팔이": 8689,
      "##하는것": 8690,
      "처음에": 8691,
      "괜찮다": 8692,
      "한번도": 8693,
      "##ㅎㅎㅎ": 8694,
      "자체는": 8695,
      "귀여워": 8696,
      "포스터가": 8697,
      "엄마가": 8698,
      "보지말": 8699,
      "궁금하다": 8700,
      "ost도": 8701,
      "놀랍다": 8702,
      "그립다": 8703,
      "일부러": 8704,
      "주윤발": 8705,
      "들고": 8706,
      "미쳤": 8707,
      "반드시": 8708,
      "살린": 8709,
      "쓰고": 8710,
      "안쓰": 8711,
      "않아서": 8712,
      "우뢰": 8713,
      "위험": 8714,
      "으로": 8715,
      "이다": 8716,
      "정우": 8717,
      "짧은": 8718,
      "팬이": 8719,
      "폐지": 8720,
      "호구": 8721,
      "##만하다": 8722,
      "##아쉽": 8723,
      "##속으로": 8724,
      "##성과": 8725,
      "##스크": 8726,
      "##치곤": 8727,
      "##운영화": 8728,
      "##버려": 8729,
      "##묘한": 8730,
      "##봤네요": 8731,
      "##커플": 8732,
      "##갑니다": 8733,
      "재밌다는": 8734,
      "진짜로": 8735,
      "생각으로": 8736,
      "배우도": 8737,
      "장면도": 8738,
      "짜증나서": 8739,
      "나름대로": 8740,
      "웃기다": 8741,
      "무서워": 8742,
      "만들었는지": 8743,
      "좋겠네요": 8744,
      "두번째": 8745,
      "어설프고": 8746,
      "말하고자": 8747,
      "유일하게": 8748,
      "해리포터": 8749,
      "가벼운": 8750,
      "제니퍼": 8751,
      "나에겐": 8752,
      "낮지": 8753,
      "내게": 8754,
      "년작": 8755,
      "담겨": 8756,
      "당황": 8757,
      "때려": 8758,
      "마약": 8759,
      "목숨": 8760,
      "묻어": 8761,
      "바다": 8762,
      "봤을까": 8763,
      "싸움": 8764,
      "어째": 8765,
      "이야": 8766,
      "재능": 8767,
      "짜집": 8768,
      "추격": 8769,
      "홍상": 8770,
      "##로의": 8771,
      "##리나": 8772,
      "##리며": 8773,
      "##이어": 8774,
      "##이었음": 8775,
      "##하길": 8776,
      "##서는": 8777,
      "##래곤": 8778,
      "##상의": 8779,
      "##바로": 8780,
      "##트의": 8781,
      "##치노": 8782,
      "##제로": 8783,
      "영화와": 8784,
      "영화인지": 8785,
      "##으로는": 8786,
      "##ㅋㅋㅋㅋㅋㅋ": 8787,
      "배우는": 8788,
      "재미없어서": 8789,
      "별로고": 8790,
      "여자들": 8791,
      "여자친구": 8792,
      "있다니": 8793,
      "봐도봐도": 8794,
      "떨어지고": 8795,
      "아름답게": 8796,
      "어울리는": 8797,
      "누군가": 8798,
      "결론은": 8799,
      "클레멘타": 8800,
      "일깨워": 8801,
      "mbc": 8802,
      "re": 8803,
      "낮다": 8804,
      "받은": 8805,
      "배트맨": 8806,
      "손색": 8807,
      "수입": 8808,
      "실력": 8809,
      "싸우는": 8810,
      "쓰는": 8811,
      "아버": 8812,
      "애매": 8813,
      "웃겼": 8814,
      "이병": 8815,
      "점만점": 8816,
      "중학교": 8817,
      "터미네이터": 8818,
      "확인": 8819,
      "흐르는": 8820,
      "흑인": 8821,
      "##는영화": 8822,
      "##아는": 8823,
      "##나와서": 8824,
      "##시오": 8825,
      "##사건": 8826,
      "##같고": 8827,
      "##해지고": 8828,
      "##거든": 8829,
      "##했지": 8830,
      "##선을": 8831,
      "##직한": 8832,
      "시간아깝다": 8833,
      "지금의": 8834,
      "##적이지": 8835,
      "연출은": 8836,
      "이해를": 8837,
      "아이들과": 8838,
      "출연한": 8839,
      "따뜻하고": 8840,
      "수작이다": 8841,
      "##좋아하는": 8842,
      "케이블에서": 8843,
      "혹시나": 8844,
      "조니뎁": 8845,
      "그동안": 8846,
      "끼워": 8847,
      "디워": 8848,
      "본지": 8849,
      "빵점": 8850,
      "애국": 8851,
      "웃으면서": 8852,
      "유덕": 8853,
      "이은": 8854,
      "이따구": 8855,
      "있네": 8856,
      "저급": 8857,
      "적절": 8858,
      "점줌": 8859,
      "중에서": 8860,
      "참나": 8861,
      "클래": 8862,
      "하여": 8863,
      "##is": 8864,
      "##이여": 8865,
      "##이제": 8866,
      "##이쁘": 8867,
      "##나네": 8868,
      "##악한": 8869,
      "##가네": 8870,
      "##있습니다": 8871,
      "##점에서": 8872,
      "##스키": 8873,
      "##문화": 8874,
      "##겠죠": 8875,
      "##았으면": 8876,
      "##대해": 8877,
      "##했을때": 8878,
      "##계속": 8879,
      "##프닝": 8880,
      "##쟁이": 8881,
      "##짱짱": 8882,
      "영화만": 8883,
      "내용과": 8884,
      "아니라고": 8885,
      "시간에": 8886,
      "다시보니": 8887,
      "여자는": 8888,
      "장면을": 8889,
      "아까웠다": 8890,
      "일본은": 8891,
      "소재와": 8892,
      "이상의": 8893,
      "이상하고": 8894,
      "모든걸": 8895,
      "제목만": 8896,
      "여러분": 8897,
      "실화를": 8898,
      "단순히": 8899,
      "희망을": 8900,
      "내생에": 8901,
      "강렬한": 8902,
      "고등학교": 8903,
      "특수효과": 8904,
      "이소룡": 8905,
      "개념": 8906,
      "김지": 8907,
      "다섯": 8908,
      "대가": 8909,
      "대통령": 8910,
      "독일": 8911,
      "로코": 8912,
      "머리가": 8913,
      "보던": 8914,
      "보다니": 8915,
      "아우": 8916,
      "안될": 8917,
      "파워": 8918,
      "형님": 8919,
      "화장": 8920,
      "##한국": 8921,
      "##적임": 8922,
      "##주면": 8923,
      "##으려고": 8924,
      "##야할": 8925,
      "##싫어": 8926,
      "##여행": 8927,
      "##웠습니다": 8928,
      "##싸움": 8929,
      "영화같": 8930,
      "영화자체": 8931,
      "너무도": 8932,
      "재밌어서": 8933,
      "생각할": 8934,
      "마지막이": 8935,
      "마지막회": 8936,
      "일본의": 8937,
      "반전을": 8938,
      "##스럽지": 8939,
      "영상과": 8940,
      "재밋어요": 8941,
      "아쉬움이": 8942,
      "##감독의": 8943,
      "##해야지": 8944,
      "여러번": 8945,
      "집중이": 8946,
      "##전개가": 8947,
      "##하자는": 8948,
      "ㅠㅠㅠㅠ": 8949,
      "제이슨": 8950,
      "숨겨진": 8951,
      "개노잼": 8952,
      "갠적으로": 8953,
      "많아서": 8954,
      "맞춰": 8955,
      "무너": 8956,
      "뭥미": 8957,
      "배신": 8958,
      "봤네": 8959,
      "부부": 8960,
      "빵터": 8961,
      "빵빵": 8962,
      "사운드": 8963,
      "소피": 8964,
      "아놀": 8965,
      "에효": 8966,
      "예능": 8967,
      "이토록": 8968,
      "있다고": 8969,
      "자세": 8970,
      "하시": 8971,
      "하길래": 8972,
      "하하하": 8973,
      "허허": 8974,
      "##정의": 8975,
      "##정화": 8976,
      "##주연": 8977,
      "##어용": 8978,
      "##함도": 8979,
      "##박한": 8980,
      "##cg": 8981,
      "##긴하지만": 8982,
      "##귀여": 8983,
      "##하고싶": 8984,
      "생각도": 8985,
      "##었다는": 8986,
      "사람도": 8987,
      "##부터가": 8988,
      "괜찮음": 8989,
      "인생에": 8990,
      "##건가요": 8991,
      "초딩때": 8992,
      "##거같아요": 8993,
      "잊혀지": 8994,
      "유일한": 8995,
      "새벽에": 8996,
      "우뢰매": 8997,
      "mov": 8998,
      "ㅎㄷㄷ": 8999,
      "감안": 9000,
      "강한": 9001,
      "구역": 9002,
      "극단": 9003,
      "기타": 9004,
      "난잡": 9005,
      "년만에": 9006,
      "동양": 9007,
      "배급": 9008,
      "부르": 9009,
      "서양": 9010,
      "싶어요": 9011,
      "아냐": 9012,
      "안봐도": 9013,
      "외로": 9014,
      "울리는": 9015,
      "이수": 9016,
      "잘하는": 9017,
      "착각": 9018,
      "컴퓨터": 9019,
      "편안": 9020,
      "##리와": 9021,
      "##인건": 9022,
      "##었구나": 9023,
      "##면에서": 9024,
      "##어이": 9025,
      "##보영": 9026,
      "##때매": 9027,
      "##레인": 9028,
      "##일을": 9029,
      "##드리": 9030,
      "##배경": 9031,
      "##죽는": 9032,
      "##잖아요": 9033,
      "##줬다": 9034,
      "감동받": 9035,
      "사랑해요": 9036,
      "최고의영화": 9037,
      "한국에서": 9038,
      "아깝고": 9039,
      "이해할수": 9040,
      "##연기는": 9041,
      "공포물": 9042,
      "##배우들의": 9043,
      "아까운영화": 9044,
      "언제봐도": 9045,
      "점수는": 9046,
      "..........": 9047,
      "주제가": 9048,
      "돋보이는": 9049,
      "무언가": 9050,
      "마이너스": 9051,
      "할리우드": 9052,
      "장국영": 9053,
      "?...": 9054,
      "bad": 9055,
      "ㅠㅜ": 9056,
      "개성": 9057,
      "과학": 9058,
      "김태": 9059,
      "나네요": 9060,
      "남기": 9061,
      "내돈": 9062,
      "답이": 9063,
      "두려": 9064,
      "멋지고": 9065,
      "빠른": 9066,
      "실험": 9067,
      "싶지": 9068,
      "아들이": 9069,
      "없었음": 9070,
      "위대": 9071,
      "자랑": 9072,
      "장진": 9073,
      "적어도": 9074,
      "케빈": 9075,
      "흑백": 9076,
      "힘내": 9077,
      "##아치": 9078,
      "##있네요": 9079,
      "##보지": 9080,
      "##출연": 9081,
      "##했으나": 9082,
      "##였으면": 9083,
      "##슬프": 9084,
      "##뭐야": 9085,
      "##민이": 9086,
      "##뿐이다": 9087,
      "##햇다": 9088,
      "재미로": 9089,
      "##으로만": 9090,
      "사랑해": 9091,
      "하나로": 9092,
      "마음으로": 9093,
      "##어야지": 9094,
      "어색하고": 9095,
      "한국영화의": 9096,
      "잘못된": 9097,
      "어른이": 9098,
      "예쁘다": 9099,
      "몰랐다": 9100,
      "후속작": 9101,
      "영환데": 9102,
      "그들": 9103,
      "로빈": 9104,
      "망한": 9105,
      "망친": 9106,
      "못하다": 9107,
      "뭐하는": 9108,
      "없나요": 9109,
      "이성": 9110,
      "이보다": 9111,
      "익숙": 9112,
      "점이상": 9113,
      "정보": 9114,
      "줍니다": 9115,
      "진리": 9116,
      "컨셉": 9117,
      "하정": 9118,
      "하품": 9119,
      "학년": 9120,
      "희대의": 9121,
      "##인도": 9122,
      "##아쉬": 9123,
      "##하러": 9124,
      "##도아니고": 9125,
      "##구성": 9126,
      "##다큐": 9127,
      "##시즌": 9128,
      "##있을": 9129,
      "##기까지": 9130,
      "##오브": 9131,
      "##혼자": 9132,
      "영화이": 9133,
      "##영화보다": 9134,
      "##에게는": 9135,
      "보기에": 9136,
      "짜증남": 9137,
      "매력적이": 9138,
      "잼있음": 9139,
      "모르겠네요": 9140,
      "만화책": 9141,
      "불쌍한": 9142,
      "여주인공이": 9143,
      "불편한": 9144,
      "##하지않고": 9145,
      "쓸데없는": 9146,
      "갑니다": 9147,
      "같고": 9148,
      "나레이션": 9149,
      "다세포": 9150,
      "따위": 9151,
      "땜에": 9152,
      "멋있는": 9153,
      "사용": 9154,
      "생긴": 9155,
      "서울": 9156,
      "선물": 9157,
      "없게": 9158,
      "여친": 9159,
      "오브": 9160,
      "왤케": 9161,
      "잤다": 9162,
      "저평가": 9163,
      "좋다고": 9164,
      "중독": 9165,
      "지겹다": 9166,
      "탈출": 9167,
      "##진심": 9168,
      "##매력": 9169,
      "##이프": 9170,
      "##잡을": 9171,
      "##od": 9172,
      "##어가는": 9173,
      "##모두": 9174,
      "##미는": 9175,
      "##드만": 9176,
      "##러스": 9177,
      "##였네": 9178,
      "##전을": 9179,
      "##뻔한": 9180,
      "##버릴": 9181,
      "##제가": 9182,
      "##차별": 9183,
      "아니지": 9184,
      "재미없다고": 9185,
      "기억나는": 9186,
      "현실과": 9187,
      "스릴도": 9188,
      "인간은": 9189,
      "재밋음": 9190,
      "봤다면": 9191,
      "떨어짐": 9192,
      "장난하냐": 9193,
      "시나리오가": 9194,
      "전쟁의": 9195,
      "다르게": 9196,
      "##그래도": 9197,
      "가고": 9198,
      "겉멋": 9199,
      "낮아": 9200,
      "높아서": 9201,
      "다신": 9202,
      "다보고": 9203,
      "도무지": 9204,
      "두근": 9205,
      "로드": 9206,
      "루즈": 9207,
      "매니아": 9208,
      "민폐": 9209,
      "안간다": 9210,
      "안보는게": 9211,
      "유발": 9212,
      "인형": 9213,
      "잊고": 9214,
      "자본": 9215,
      "케릭터": 9216,
      "판단": 9217,
      "평소": 9218,
      "평균": 9219,
      "포인트": 9220,
      "폭풍": 9221,
      "프리": 9222,
      "프레": 9223,
      "##하더라": 9224,
      "##하거나": 9225,
      "##줄은": 9226,
      "##일듯": 9227,
      "##자들이": 9228,
      "##게임": 9229,
      "##느껴": 9230,
      "##ck": 9231,
      "##웃김": 9232,
      "##히고": 9233,
      "##끝까지": 9234,
      "##불허": 9235,
      "##몰입": 9236,
      "##는데도": 9237,
      "최고봉": 9238,
      "이런류의": 9239,
      "##었다고": 9240,
      "다시보고싶": 9241,
      "명작은": 9242,
      "괜찮았다": 9243,
      "현실이": 9244,
      "짜증나고": 9245,
      "정도가": 9246,
      "##는거지": 9247,
      "가족이": 9248,
      "나왔다": 9249,
      "찾아볼": 9250,
      "영화라니": 9251,
      "다르다": 9252,
      "사이코": 9253,
      "오랫만에": 9254,
      "이뻐서": 9255,
      "movie": 9256,
      "각색": 9257,
      "개도": 9258,
      "고양이": 9259,
      "기존": 9260,
      "네티즌": 9261,
      "늦게": 9262,
      "망가": 9263,
      "망치": 9264,
      "바이": 9265,
      "박수": 9266,
      "뱀파이어": 9267,
      "부탁": 9268,
      "알겠다": 9269,
      "이준": 9270,
      "잠이": 9271,
      "재개봉": 9272,
      "정상": 9273,
      "죄송": 9274,
      "줄리": 9275,
      "키스": 9276,
      "폭발": 9277,
      "한방": 9278,
      "했음": 9279,
      "##리한": 9280,
      "##이에": 9281,
      "##나도": 9282,
      "##as": 9283,
      "##주기": 9284,
      "##보내": 9285,
      "##사에": 9286,
      "##더빙": 9287,
      "##같아": 9288,
      "##은거": 9289,
      "##중이": 9290,
      "##식은": 9291,
      "##빠진": 9292,
      "##선생": 9293,
      "##번째": 9294,
      "##희가": 9295,
      "##간에": 9296,
      "##애들이": 9297,
      "##좋았다": 9298,
      "##랜드": 9299,
      "##판이": 9300,
      "작품입니다": 9301,
      "아무튼": 9302,
      "짜증이": 9303,
      "작가의": 9304,
      "세상이": 9305,
      "궁금해서": 9306,
      "영상미가": 9307,
      "자극적인": 9308,
      "공짜로": 9309,
      "거북": 9310,
      "관련": 9311,
      "극복": 9312,
      "김치": 9313,
      "김희": 9314,
      "꼭보": 9315,
      "꿈꾸": 9316,
      "달콤": 9317,
      "대신": 9318,
      "돈내고": 9319,
      "라스트": 9320,
      "말자": 9321,
      "맛이": 9322,
      "명복을": 9323,
      "반담": 9324,
      "본듯": 9325,
      "부담": 9326,
      "선정": 9327,
      "아진짜": 9328,
      "압도": 9329,
      "어떨": 9330,
      "요새": 9331,
      "유럽": 9332,
      "이나": 9333,
      "잊을수": 9334,
      "장동": 9335,
      "좋네": 9336,
      "주고싶": 9337,
      "즐겨": 9338,
      "지겹": 9339,
      "짐캐": 9340,
      "최소": 9341,
      "최소한": 9342,
      "하하": 9343,
      "한다는": 9344,
      "흡입": 9345,
      "##아저씨": 9346,
      "##이도": 9347,
      "##후반": 9348,
      "##시면": 9349,
      "##어버린": 9350,
      "##모로": 9351,
      "##으신": 9352,
      "##지현": 9353,
      "##사와": 9354,
      "##성기": 9355,
      "##안됨": 9356,
      "##티노": 9357,
      "##자로": 9358,
      "##개그": 9359,
      "##전이": 9360,
      "##느끼": 9361,
      "##또한": 9362,
      "##즈의": 9363,
      "##졌음": 9364,
      "##납니다": 9365,
      "##왔는데": 9366,
      "##웠고": 9367,
      "액션을": 9368,
      "느낌은": 9369,
      "괜찮았는데": 9370,
      "인생은": 9371,
      "억지감동": 9372,
      "이제는": 9373,
      "##메이드": 9374,
      "가족의": 9375,
      "잔잔하게": 9376,
      "미국의": 9377,
      "사실을": 9378,
      "유쾌하게": 9379,
      "시대에": 9380,
      "불쌍하다": 9381,
      "어쩌면": 9382,
      "살인마": 9383,
      "믿고보는": 9384,
      "내생애": 9385,
      "##하지마라": 9386,
      "인터넷": 9387,
      "어우러": 9388,
      "못봐주": 9389,
      "it": 9390,
      "개나": 9391,
      "개똥": 9392,
      "과대": 9393,
      "그것이": 9394,
      "그것을": 9395,
      "끌고": 9396,
      "나이가": 9397,
      "달려": 9398,
      "도데": 9399,
      "되네요": 9400,
      "맞아": 9401,
      "명불허": 9402,
      "목소리가": 9403,
      "무겁": 9404,
      "밀려": 9405,
      "보단": 9406,
      "본건데": 9407,
      "부정": 9408,
      "분들이": 9409,
      "빛을": 9410,
      "사상": 9411,
      "삶이": 9412,
      "어리": 9413,
      "열연": 9414,
      "오프닝": 9415,
      "왠만한": 9416,
      "우연": 9417,
      "원조": 9418,
      "유행": 9419,
      "이동": 9420,
      "자기가": 9421,
      "자동차": 9422,
      "집어": 9423,
      "책임": 9424,
      "천국": 9425,
      "추리": 9426,
      "파괴": 9427,
      "하며": 9428,
      "환경": 9429,
      "##하디": 9430,
      "##서도": 9431,
      "##있었다": 9432,
      "##보이는": 9433,
      "##드림": 9434,
      "##우의": 9435,
      "##까요": 9436,
      "##게하는": 9437,
      "##엇음": 9438,
      "##cn": 9439,
      "##슨이": 9440,
      "내용의": 9441,
      "감독도": 9442,
      "마지막엔": 9443,
      "기대없이": 9444,
      "##oooo": 9445,
      "볼만했다": 9446,
      "볼만합니다": 9447,
      "매력에": 9448,
      "정도면": 9449,
      "##스러워": 9450,
      "##기도하고": 9451,
      "제목을": 9452,
      "그렇지만": 9453,
      "떨어지": 9454,
      "왜이러": 9455,
      "무엇인가": 9456,
      "영화였음": 9457,
      "포스터만": 9458,
      "얼굴이": 9459,
      "##ery": 9460,
      "##거같음": 9461,
      "...............": 9462,
      "리얼리티": 9463,
      "소중함을": 9464,
      "kbs": 9465,
      "거품": 9466,
      "꼭보세요": 9467,
      "나무": 9468,
      "담백": 9469,
      "못미": 9470,
      "무게": 9471,
      "받고": 9472,
      "없냐": 9473,
      "엑스": 9474,
      "예수": 9475,
      "인종": 9476,
      "좋을듯": 9477,
      "파격": 9478,
      "풍자": 9479,
      "헛웃음": 9480,
      "호기": 9481,
      "##인게": 9482,
      "##하균": 9483,
      "##가에": 9484,
      "##래도": 9485,
      "##마자": 9486,
      "##년이": 9487,
      "##보긴": 9488,
      "##물로": 9489,
      "##부로": 9490,
      "##세여": 9491,
      "##스포": 9492,
      "##해선": 9493,
      "##장의": 9494,
      "##자들의": 9495,
      "##았네": 9496,
      "##했었는데": 9497,
      "##못해": 9498,
      "재미있는데": 9499,
      "내용인지": 9500,
      "만들어서": 9501,
      "사랑합니다": 9502,
      "다시보고": 9503,
      "없는게": 9504,
      "##같은영화": 9505,
      "유치해서": 9506,
      "인생이": 9507,
      "조금은": 9508,
      "봐야지": 9509,
      "시작부터": 9510,
      "포스터에": 9511,
      "않았지만": 9512,
      "이름이": 9513,
      "블랙코미디": 9514,
      "스포츠": 9515,
      "best": 9516,
      "제시카": 9517,
      "wh": 9518,
      "객관": 9519,
      "글고": 9520,
      "깡패": 9521,
      "단어": 9522,
      "동시에": 9523,
      "드래곤": 9524,
      "명장면": 9525,
      "별하나": 9526,
      "보내": 9527,
      "보았는데": 9528,
      "브래": 9529,
      "사무": 9530,
      "아파": 9531,
      "안어울": 9532,
      "어둡": 9533,
      "없다고": 9534,
      "엑소": 9535,
      "이렇": 9536,
      "임창": 9537,
      "죽고": 9538,
      "찍고": 9539,
      "한개도": 9540,
      "할아버지": 9541,
      "흔들": 9542,
      "##le": 9543,
      "##인지도": 9544,
      "##라노": 9545,
      "##들여": 9546,
      "##들끼리": 9547,
      "##더더": 9548,
      "##스와": 9549,
      "##스케": 9550,
      "##오래": 9551,
      "##싫다": 9552,
      "##분은": 9553,
      "##딩때": 9554,
      "##란티노": 9555,
      "##nd": 9556,
      "##편은": 9557,
      "영화야": 9558,
      "내용에": 9559,
      "액션과": 9560,
      "한국판": 9561,
      "소재의": 9562,
      "##생각이": 9563,
      "뻔한스토리": 9564,
      "배경이": 9565,
      "##라이언": 9566,
      "ost가": 9567,
      "전체적인": 9568,
      "귀엽다": 9569,
      "##모르고": 9570,
      "영원한": 9571,
      "허술한": 9572,
      "보시면": 9573,
      "은근히": 9574,
      "이도저도": 9575,
      "짜집기": 9576,
      "홍상수": 9577,
      "갖다": 9578,
      "고독": 9579,
      "공간": 9580,
      "길이": 9581,
      "맞지": 9582,
      "매미": 9583,
      "뭐고": 9584,
      "반대": 9585,
      "벗어": 9586,
      "불안": 9587,
      "불가능": 9588,
      "빛나는": 9589,
      "생에": 9590,
      "싶었다": 9591,
      "알파": 9592,
      "암걸": 9593,
      "없으면": 9594,
      "역량": 9595,
      "왜곡": 9596,
      "일베": 9597,
      "첨부터": 9598,
      "콜린": 9599,
      "탁월": 9600,
      "형제": 9601,
      "##로로": 9602,
      "##적으론": 9603,
      "##인들의": 9604,
      "##아빠": 9605,
      "##ow": 9606,
      "##라에": 9607,
      "##상은": 9608,
      "##있지만": 9609,
      "##기법": 9610,
      "##스톤": 9611,
      "##트는": 9612,
      "##트를": 9613,
      "##할만한": 9614,
      "##받을": 9615,
      "##운이": 9616,
      "##굿굿": 9617,
      "##임에도": 9618,
      "##졌던": 9619,
      "영화나": 9620,
      "사람들에게": 9621,
      "감독과": 9622,
      "시간때": 9623,
      "좋았을텐데": 9624,
      "아깝네요": 9625,
      "느낌이다": 9626,
      "아무생각없이": 9627,
      "##배우의": 9628,
      "영상도": 9629,
      "##재미없음": 9630,
      "전개와": 9631,
      "추천하고": 9632,
      "공감도": 9633,
      "##감독님": 9634,
      "##ㅜㅜㅜ": 9635,
      "친구랑": 9636,
      "무섭고": 9637,
      "시대의": 9638,
      "당시에": 9639,
      "들어가": 9640,
      "##아까움": 9641,
      "교훈도": 9642,
      "탄탄하고": 9643,
      "황당한": 9644,
      "메세지": 9645,
      "가득한": 9646,
      "어렵다": 9647,
      "피해자": 9648,
      "선생님": 9649,
      "역겨운": 9650,
      "전반적으로": 9651,
      "류승범": 9652,
      "이병헌": 9653,
      "ocn": 9654,
      "가정": 9655,
      "공중": 9656,
      "끝에": 9657,
      "냄새": 9658,
      "녹아": 9659,
      "동네": 9660,
      "듭니다": 9661,
      "때마다": 9662,
      "만난": 9663,
      "매끄": 9664,
      "몽환": 9665,
      "무간": 9666,
      "무난": 9667,
      "바탕": 9668,
      "밤에": 9669,
      "볼려고": 9670,
      "상징": 9671,
      "수면": 9672,
      "아담": 9673,
      "안무서": 9674,
      "양아치": 9675,
      "울면서": 9676,
      "이란": 9677,
      "적절한": 9678,
      "절망": 9679,
      "죽이": 9680,
      "진한": 9681,
      "##리엄": 9682,
      "##원은": 9683,
      "##이요": 9684,
      "##도의": 9685,
      "##없나": 9686,
      "##저리": 9687,
      "##라라": 9688,
      "##시가": 9689,
      "##어지": 9690,
      "##있지": 9691,
      "##있던": 9692,
      "##무시": 9693,
      "##장르": 9694,
      "##았네요": 9695,
      "##대고": 9696,
      "##중훈": 9697,
      "##봐야지": 9698,
      "##였나": 9699,
      "##신의": 9700,
      "##간히": 9701,
      "##께요": 9702,
      "##허접": 9703,
      "영화예요": 9704,
      "드라마의": 9705,
      "사람이라면": 9706,
      "사랑하고": 9707,
      "이해불가": 9708,
      "##라는게": 9709,
      "##을까요": 9710,
      "정도는": 9711,
      "요즘은": 9712,
      "봐야하는": 9713,
      "점수준": 9714,
      "설정이": 9715,
      "가능한": 9716,
      "라이언": 9717,
      "소장하고": 9718,
      "가까운": 9719,
      "어두운": 9720,
      "is": 9721,
      "very": 9722,
      "강간": 9723,
      "개콘": 9724,
      "것에": 9725,
      "고어": 9726,
      "끝나서": 9727,
      "담은": 9728,
      "데뷔": 9729,
      "메이": 9730,
      "뭐임": 9731,
      "받는": 9732,
      "버려": 9733,
      "빕니다": 9734,
      "신하균": 9735,
      "안들": 9736,
      "어쨌": 9737,
      "웃기는": 9738,
      "웰메이드": 9739,
      "일주": 9740,
      "읽고": 9741,
      "조화": 9742,
      "즐길": 9743,
      "짜릿": 9744,
      "찾아서": 9745,
      "첩보": 9746,
      "혐오": 9747,
      "##진이": 9748,
      "##구가": 9749,
      "##질않": 9750,
      "##들러": 9751,
      "##들한테": 9752,
      "##부는": 9753,
      "##부가": 9754,
      "##더맨": 9755,
      "##스에": 9756,
      "##할지": 9757,
      "##장애": 9758,
      "##자면": 9759,
      "##중에서": 9760,
      "##습니까": 9761,
      "##법한": 9762,
      "##프리오": 9763,
      "##준호": 9764,
      "##쥬얼": 9765,
      "##놨네": 9766,
      "##억지": 9767,
      "##웨이": 9768,
      "##둥이": 9769,
      "생각난다": 9770,
      "마지막장면": 9771,
      "나오는데": 9772,
      "아무도": 9773,
      "##배우들이": 9774,
      "공감할": 9775,
      "##내용도": 9776,
      "만들었나": 9777,
      "##레이드": 9778,
      "ㅋㅋㅋㅋㅋㅋㅋㅋ": 9779,
      "##쓰레기영화": 9780,
      "이것보단": 9781,
      "의도가": 9782,
      "다행이다": 9783,
      "아프다": 9784,
      "뜬금없는": 9785,
      "하나하나가": 9786,
      "외계인": 9787,
      "도데체": 9788,
      "가히": 9789,
      "고뇌": 9790,
      "담긴": 9791,
      "드디어": 9792,
      "리즈": 9793,
      "무거운": 9794,
      "박신": 9795,
      "버리고": 9796,
      "베리": 9797,
      "빠지는": 9798,
      "소화": 9799,
      "쏟아": 9800,
      "쓸쓸": 9801,
      "아만다": 9802,
      "애초": 9803,
      "오우": 9804,
      "일으": 9805,
      "잠들": 9806,
      "좋앗": 9807,
      "트랜": 9808,
      "피터": 9809,
      "할때": 9810,
      "##리스트": 9811,
      "##이름": 9812,
      "##나네요": 9813,
      "##의를": 9814,
      "##시원": 9815,
      "##시청": 9816,
      "##은듯": 9817,
      "##되는데": 9818,
      "##감과": 9819,
      "##위원": 9820,
      "##졌어요": 9821,
      "##님들": 9822,
      "##졸작": 9823,
      "드라마에": 9824,
      "재미있었음": 9825,
      "아니었다": 9826,
      "##했다면": 9827,
      "괜찮았음": 9828,
      "공포를": 9829,
      "반전에": 9830,
      "##지않는다": 9831,
      "캐릭터들이": 9832,
      "오글오글": 9833,
      "알았음": 9834,
      "##으면서도": 9835,
      "명불허전": 9836,
      "건가": 9837,
      "깨알": 9838,
      "나을듯": 9839,
      "담담": 9840,
      "되는데": 9841,
      "드네요": 9842,
      "디카": 9843,
      "매번": 9844,
      "밑도": 9845,
      "박중훈": 9846,
      "송강호": 9847,
      "승리": 9848,
      "싶었던": 9849,
      "어거지": 9850,
      "잊지못": 9851,
      "점부터": 9852,
      "즐기": 9853,
      "창피": 9854,
      "##로그": 9855,
      "##하니까": 9856,
      "##없지": 9857,
      "##쓰는": 9858,
      "##들로": 9859,
      "##점수": 9860,
      "##남기": 9861,
      "##거리가": 9862,
      "##할뿐": 9863,
      "##오오": 9864,
      "##대단": 9865,
      "##유리": 9866,
      "##분들은": 9867,
      "##테러": 9868,
      "##위한": 9869,
      "##슨의": 9870,
      "##승전": 9871,
      "##뚱맞": 9872,
      "##므로": 9873,
      "영화속": 9874,
      "최고네요": 9875,
      "기대가": 9876,
      "아깝네": 9877,
      "아이디어": 9878,
      "괜찮고": 9879,
      "괜찮게": 9880,
      "만들어낸": 9881,
      "##다니는": 9882,
      "##ㅎㅎㅎㅎ": 9883,
      "어이없음": 9884,
      "기분나": 9885,
      "않은데": 9886,
      "언제까지": 9887,
      "배경으로": 9888,
      "감동적이네요": 9889,
      "##재미있게": 9890,
      "##아닌가": 9891,
      "요소가": 9892,
      "못보겠다": 9893,
      "거기다": 9894,
      "하이틴": 9895,
      "유덕화": 9896,
      "강동": 9897,
      "끝도": 9898,
      "니가": 9899,
      "도둑": 9900,
      "말그대로": 9901,
      "망할": 9902,
      "맞추": 9903,
      "먹는": 9904,
      "미녀": 9905,
      "배꼽": 9906,
      "번을": 9907,
      "변화": 9908,
      "빨갱": 9909,
      "선사": 9910,
      "손가락": 9911,
      "앞에": 9912,
      "엘리": 9913,
      "이종": 9914,
      "자아": 9915,
      "점주고": 9916,
      "정당": 9917,
      "질리": 9918,
      "축구": 9919,
      "하도": 9920,
      "했더니": 9921,
      "황정": 9922,
      "후에": 9923,
      "##진않": 9924,
      "##가운": 9925,
      "##정한": 9926,
      "##어디": 9927,
      "##비슷": 9928,
      "##모를": 9929,
      "##보구": 9930,
      "##같아요": 9931,
      "##함께": 9932,
      "##할수가": 9933,
      "##치의": 9934,
      "##났음": 9935,
      "##워즈": 9936,
      "##되나": 9937,
      "##먹은": 9938,
      "##신분들": 9939,
      "##패스": 9940,
      "##좋게": 9941,
      "##민의": 9942,
      "##답니다": 9943,
      "##롭고": 9944,
      "##꺼면": 9945,
      "##빨리": 9946,
      "드라마입니다": 9947,
      "재미있었습니다": 9948,
      "##라고요": 9949,
      "나오네": 9950,
      "모르지만": 9951,
      "장면들이": 9952,
      "현실은": 9953,
      "이상은": 9954,
      "개봉한": 9955,
      "어이없다": 9956,
      "보게된": 9957,
      "인상적인": 9958,
      "있었으면": 9959,
      "더빙이": 9960,
      "빠져서": 9961,
      "이름을": 9962,
      "당신이": 9963,
      "##재미있어요": 9964,
      "허무한": 9965,
      "홍콩영화": 9966,
      "진지하게": 9967,
      "메시지": 9968,
      "풋풋한": 9969,
      "화장실": 9970,
      "?..": 9971,
      "걱정": 9972,
      "그들이": 9973,
      "깊게": 9974,
      "나중": 9975,
      "넘넘": 9976,
      "다녀": 9977,
      "던져": 9978,
      "뒤에": 9979,
      "리암": 9980,
      "머릿": 9981,
      "반영": 9982,
      "보려": 9983,
      "보라고": 9984,
      "보았던": 9985,
      "분만에": 9986,
      "비호": 9987,
      "비쥬얼": 9988,
      "빼곤": 9989,
      "삭제": 9990,
      "소개": 9991,
      "암울": 9992,
      "요리": 9993,
      "음식": 9994,
      "이지": 9995,
      "이승": 9996,
      "자고": 9997,
      "절제": 9998,
      "총체": 9999
    }
  }
}